{"version": "1.0", "truncation": null, "padding": null, "added_tokens": [{"id": 0, "content": "<pad>", "single_word": false, "lstrip": false, "rstrip": false, "normalized": false, "special": true}, {"id": 1, "content": "<unk>", "single_word": false, "lstrip": false, "rstrip": false, "normalized": false, "special": true}, {"id": 2, "content": "<s>", "single_word": false, "lstrip": false, "rstrip": false, "normalized": false, "special": true}, {"id": 3, "content": "</s>", "single_word": false, "lstrip": false, "rstrip": false, "normalized": false, "special": true}, {"id": 4, "content": "<|system|>", "single_word": false, "lstrip": false, "rstrip": false, "normalized": false, "special": true}, {"id": 5, "content": "<|user|>", "single_word": false, "lstrip": false, "rstrip": false, "normalized": false, "special": true}, {"id": 6, "content": "<|assistant|>", "single_word": false, "lstrip": false, "rstrip": false, "normalized": false, "special": true}, {"id": 7, "content": "<|tool|>", "single_word": false, "lstrip": false, "rstrip": false, "normalized": false, "special": true}, {"id": 8, "content": "<|image|>", "single_word": false, "lstrip": false, "rstrip": false, "normalized": false, "special": true}, {"id": 9, "content": "<|audio|>", "single_word": false, "lstrip": false, "rstrip": false, "normalized": false, "special": true}, {"id": 10, "content": "[MY_STATE]", "single_word": false, "lstrip": false, "rstrip": false, "normalized": false, "special": true}, {"id": 11, "content": "[/MY_STATE]", "single_word": false, "lstrip": false, "rstrip": false, "normalized": false, "special": true}, {"id": 12, "content": "[INSTRUCTION]", "single_word": false, "lstrip": false, "rstrip": false, "normalized": false, "special": true}, {"id": 13, "content": "[/INSTRUCTION]", "single_word": false, "lstrip": false, "rstrip": false, "normalized": false, "special": true}, {"id": 14, "content": "[THINKING]", "single_word": false, "lstrip": false, "rstrip": false, "normalized": false, "special": true}, {"id": 15, "content": "[/THINKING]", "single_word": false, "lstrip": false, "rstrip": false, "normalized": false, "special": true}, {"id": 16, "content": "[MEMORY]", "single_word": false, "lstrip": false, "rstrip": false, "normalized": false, "special": true}, {"id": 17, "content": "[/MEMORY]", "single_word": false, "lstrip": false, "rstrip": false, "normalized": false, "special": true}, {"id": 18, "content": "[SPECIALIST]", "single_word": false, "lstrip": false, "rstrip": false, "normalized": false, "special": true}, {"id": 19, "content": "[/SPECIALIST]", "single_word": false, "lstrip": false, "rstrip": false, "normalized": false, "special": true}, {"id": 20, "content": "<TASK:SCHEMA2RULE>", "single_word": false, "lstrip": false, "rstrip": false, "normalized": false, "special": true}, {"id": 21, "content": "<SCHEMA>", "single_word": false, "lstrip": false, "rstrip": false, "normalized": false, "special": true}, {"id": 22, "content": "</SCHEMA>", "single_word": false, "lstrip": false, "rstrip": false, "normalized": false, "special": true}, {"id": 23, "content": "<ROLES>", "single_word": false, "lstrip": false, "rstrip": false, "normalized": false, "special": true}, {"id": 24, "content": "</ROLES>", "single_word": false, "lstrip": false, "rstrip": false, "normalized": false, "special": true}, {"id": 25, "content": "<TRACE>", "single_word": false, "lstrip": false, "rstrip": false, "normalized": false, "special": true}, {"id": 26, "content": "</TRACE>", "single_word": false, "lstrip": false, "rstrip": false, "normalized": false, "special": true}, {"id": 27, "content": "<RULE>", "single_word": false, "lstrip": false, "rstrip": false, "normalized": false, "special": true}, {"id": 28, "content": "</RULE>", "single_word": false, "lstrip": false, "rstrip": false, "normalized": false, "special": true}, {"id": 29, "content": "<OPCODE>", "single_word": false, "lstrip": false, "rstrip": false, "normalized": false, "special": true}, {"id": 30, "content": "</OPCODE>", "single_word": false, "lstrip": false, "rstrip": false, "normalized": false, "special": true}, {"id": 31, "content": "<VALID>", "single_word": false, "lstrip": false, "rstrip": false, "normalized": false, "special": true}, {"id": 32, "content": "</VALID>", "single_word": false, "lstrip": false, "rstrip": false, "normalized": false, "special": true}, {"id": 33, "content": "BIND_ROLE", "single_word": true, "lstrip": false, "rstrip": false, "normalized": false, "special": true}, {"id": 34, "content": "UNBIND_ROLE", "single_word": true, "lstrip": false, "rstrip": false, "normalized": false, "special": true}, {"id": 35, "content": "REBIND_ROLE", "single_word": true, "lstrip": false, "rstrip": false, "normalized": false, "special": true}, {"id": 36, "content": "MATCH", "single_word": true, "lstrip": false, "rstrip": false, "normalized": false, "special": true}, {"id": 37, "content": "PREDICT", "single_word": true, "lstrip": false, "rstrip": false, "normalized": false, "special": true}, {"id": 38, "content": "DISCOVER", "single_word": true, "lstrip": false, "rstrip": false, "normalized": false, "special": true}, {"id": 39, "content": "ANALOGY", "single_word": true, "lstrip": false, "rstrip": false, "normalized": false, "special": true}, {"id": 40, "content": "TEMPORAL_BIND", "single_word": true, "lstrip": false, "rstrip": false, "normalized": false, "special": true}, {"id": 41, "content": "UNIFY", "single_word": true, "lstrip": false, "rstrip": false, "normalized": false, "special": true}, {"id": 42, "content": "SUM", "single_word": true, "lstrip": false, "rstrip": false, "normalized": false, "special": true}, {"id": 43, "content": "SELECT", "single_word": true, "lstrip": false, "rstrip": false, "normalized": false, "special": true}, {"id": 44, "content": "GROUP", "single_word": true, "lstrip": false, "rstrip": false, "normalized": false, "special": true}, {"id": 45, "content": "SORT", "single_word": true, "lstrip": false, "rstrip": false, "normalized": false, "special": true}, {"id": 46, "content": "JOIN", "single_word": true, "lstrip": false, "rstrip": false, "normalized": false, "special": true}, {"id": 47, "content": "MERGE", "single_word": true, "lstrip": false, "rstrip": false, "normalized": false, "special": true}, {"id": 48, "content": "SPLIT", "single_word": true, "lstrip": false, "rstrip": false, "normalized": false, "special": true}, {"id": 49, "content": "FILTER", "single_word": true, "lstrip": false, "rstrip": false, "normalized": false, "special": true}, {"id": 50, "content": "MAP_ROLES", "single_word": true, "lstrip": false, "rstrip": false, "normalized": false, "special": true}, {"id": 51, "content": "REDUCE", "single_word": true, "lstrip": false, "rstrip": false, "normalized": false, "special": true}, {"id": 52, "content": "INST", "single_word": true, "lstrip": false, "rstrip": false, "normalized": false, "special": true}, {"id": 53, "content": "GEN", "single_word": true, "lstrip": false, "rstrip": false, "normalized": false, "special": true}, {"id": 54, "content": "NEWVAR", "single_word": true, "lstrip": false, "rstrip": false, "normalized": false, "special": true}, {"id": 55, "content": "SKIP", "single_word": true, "lstrip": false, "rstrip": false, "normalized": false, "special": true}, {"id": 56, "content": "BIND", "single_word": true, "lstrip": false, "rstrip": false, "normalized": false, "special": true}, {"id": 57, "content": "UNBIND", "single_word": true, "lstrip": false, "rstrip": false, "normalized": false, "special": true}, {"id": 58, "content": "QUERY", "single_word": true, "lstrip": false, "rstrip": false, "normalized": false, "special": true}, {"id": 59, "content": "AGENT", "single_word": true, "lstrip": false, "rstrip": false, "normalized": false, "special": true}, {"id": 60, "content": "ACTION", "single_word": true, "lstrip": false, "rstrip": false, "normalized": false, "special": true}, {"id": 61, "content": "OBJECT", "single_word": true, "lstrip": false, "rstrip": false, "normalized": false, "special": true}, {"id": 62, "content": "QUANTITY", "single_word": true, "lstrip": false, "rstrip": false, "normalized": false, "special": true}, {"id": 63, "content": "SOURCE", "single_word": true, "lstrip": false, "rstrip": false, "normalized": false, "special": true}, {"id": 64, "content": "DESTINATION", "single_word": true, "lstrip": false, "rstrip": false, "normalized": false, "special": true}, {"id": 65, "content": "CONTEXT", "single_word": true, "lstrip": false, "rstrip": false, "normalized": false, "special": true}, {"id": 66, "content": "STATE", "single_word": true, "lstrip": false, "rstrip": false, "normalized": false, "special": true}], "normalizer": {"type": "NFC"}, "pre_tokenizer": {"type": "Sequence", "pretokenizers": [{"type": "Split", "pattern": {"Regex": "(?i:'s|'t|'re|'ve|'m|'ll|'d)|[^\\r\\n\\p{L}\\p{N}]?\\p{L}+|\\p{N}{1,3}| ?[^\\s\\p{L}\\p{N}]+[\\r\\n]*|\\s*[\\r\\n]+|\\s+(?!\\S)|\\s+"}, "behavior": "Isolated", "invert": false}, {"type": "ByteLevel", "add_prefix_space": false, "trim_offsets": true, "use_regex": false}]}, "post_processor": {"type": "ByteLevel", "add_prefix_space": true, "trim_offsets": false, "use_regex": true}, "decoder": {"type": "ByteLevel", "add_prefix_space": true, "trim_offsets": true, "use_regex": true}, "model": {"type": "BPE", "dropout": null, "unk_token": null, "continuing_subword_prefix": null, "end_of_word_suffix": null, "fuse_unk": false, "byte_fallback": false, "ignore_merges": false, "vocab": {"<pad>": 0, "<unk>": 1, "<s>": 2, "</s>": 3, "<|system|>": 4, "<|user|>": 5, "<|assistant|>": 6, "<|tool|>": 7, "<|image|>": 8, "<|audio|>": 9, "[MY_STATE]": 10, "[/MY_STATE]": 11, "[INSTRUCTION]": 12, "[/INSTRUCTION]": 13, "[THINKING]": 14, "[/THINKING]": 15, "[MEMORY]": 16, "[/MEMORY]": 17, "[SPECIALIST]": 18, "[/SPECIALIST]": 19, "<TASK:SCHEMA2RULE>": 20, "<SCHEMA>": 21, "</SCHEMA>": 22, "<ROLES>": 23, "</ROLES>": 24, "<TRACE>": 25, "</TRACE>": 26, "<RULE>": 27, "</RULE>": 28, "<OPCODE>": 29, "</OPCODE>": 30, "<VALID>": 31, "</VALID>": 32, "BIND_ROLE": 33, "UNBIND_ROLE": 34, "REBIND_ROLE": 35, "MATCH": 36, "PREDICT": 37, "DISCOVER": 38, "ANALOGY": 39, "TEMPORAL_BIND": 40, "UNIFY": 41, "SUM": 42, "SELECT": 43, "GROUP": 44, "SORT": 45, "JOIN": 46, "MERGE": 47, "SPLIT": 48, "FILTER": 49, "MAP_ROLES": 50, "REDUCE": 51, "INST": 52, "GEN": 53, "NEWVAR": 54, "SKIP": 55, "BIND": 56, "UNBIND": 57, "QUERY": 58, "AGENT": 59, "ACTION": 60, "OBJECT": 61, "QUANTITY": 62, "SOURCE": 63, "DESTINATION": 64, "CONTEXT": 65, "STATE": 66, "!": 67, "\"": 68, "#": 69, "$": 70, "%": 71, "&": 72, "'": 73, "(": 74, ")": 75, "*": 76, "+": 77, ",": 78, "-": 79, ".": 80, "/": 81, "0": 82, "1": 83, "2": 84, "3": 85, "4": 86, "5": 87, "6": 88, "7": 89, "8": 90, "9": 91, ":": 92, ";": 93, "<": 94, "=": 95, ">": 96, "?": 97, "@": 98, "A": 99, "B": 100, "C": 101, "D": 102, "E": 103, "F": 104, "G": 105, "H": 106, "I": 107, "J": 108, "K": 109, "L": 110, "M": 111, "N": 112, "O": 113, "P": 114, "Q": 115, "R": 116, "S": 117, "T": 118, "U": 119, "V": 120, "W": 121, "X": 122, "Y": 123, "Z": 124, "[": 125, "\\": 126, "]": 127, "^": 128, "_": 129, "`": 130, "a": 131, "b": 132, "c": 133, "d": 134, "e": 135, "f": 136, "g": 137, "h": 138, "i": 139, "j": 140, "k": 141, "l": 142, "m": 143, "n": 144, "o": 145, "p": 146, "q": 147, "r": 148, "s": 149, "t": 150, "u": 151, "v": 152, "w": 153, "x": 154, "y": 155, "z": 156, "{": 157, "|": 158, "}": 159, "~": 160, "¡": 161, "¢": 162, "£": 163, "¤": 164, "¥": 165, "¦": 166, "§": 167, "¨": 168, "©": 169, "ª": 170, "«": 171, "¬": 172, "®": 173, "¯": 174, "°": 175, "±": 176, "²": 177, "³": 178, "´": 179, "µ": 180, "¶": 181, "·": 182, "¸": 183, "¹": 184, "º": 185, "»": 186, "¼": 187, "½": 188, "¾": 189, "¿": 190, "À": 191, "Á": 192, "Â": 193, "Ã": 194, "Ä": 195, "Å": 196, "Æ": 197, "Ç": 198, "È": 199, "É": 200, "Ê": 201, "Ë": 202, "Ì": 203, "Í": 204, "Î": 205, "Ï": 206, "Ð": 207, "Ñ": 208, "Ò": 209, "Ó": 210, "Ô": 211, "Õ": 212, "Ö": 213, "×": 214, "Ø": 215, "Ù": 216, "Ú": 217, "Û": 218, "Ü": 219, "Ý": 220, "Þ": 221, "ß": 222, "à": 223, "á": 224, "â": 225, "ã": 226, "ä": 227, "å": 228, "æ": 229, "ç": 230, "è": 231, "é": 232, "ê": 233, "ë": 234, "ì": 235, "í": 236, "î": 237, "ï": 238, "ð": 239, "ñ": 240, "ò": 241, "ó": 242, "ô": 243, "õ": 244, "ö": 245, "÷": 246, "ø": 247, "ù": 248, "ú": 249, "û": 250, "ü": 251, "ý": 252, "þ": 253, "ÿ": 254, "Ā": 255, "ā": 256, "Ă": 257, "ă": 258, "Ą": 259, "ą": 260, "Ć": 261, "ć": 262, "Ĉ": 263, "ĉ": 264, "Ċ": 265, "ċ": 266, "Č": 267, "č": 268, "Ď": 269, "ď": 270, "Đ": 271, "đ": 272, "Ē": 273, "ē": 274, "Ĕ": 275, "ĕ": 276, "Ė": 277, "ė": 278, "Ę": 279, "ę": 280, "Ě": 281, "ě": 282, "Ĝ": 283, "ĝ": 284, "Ğ": 285, "ğ": 286, "Ġ": 287, "ġ": 288, "Ģ": 289, "ģ": 290, "Ĥ": 291, "ĥ": 292, "Ħ": 293, "ħ": 294, "Ĩ": 295, "ĩ": 296, "Ī": 297, "ī": 298, "Ĭ": 299, "ĭ": 300, "Į": 301, "į": 302, "İ": 303, "ı": 304, "Ĳ": 305, "ĳ": 306, "Ĵ": 307, "ĵ": 308, "Ķ": 309, "ķ": 310, "ĸ": 311, "Ĺ": 312, "ĺ": 313, "Ļ": 314, "ļ": 315, "Ľ": 316, "ľ": 317, "Ŀ": 318, "ŀ": 319, "Ł": 320, "ł": 321, "Ń": 322, "Ġt": 323, "he": 324, "Ġa": 325, "in": 326, "Ġs": 327, "re": 328, "Ġd": 329, "ou": 330, "čĊ": 331, "on": 332, "Ġw": 333, "Ġh": 334, "Ġl": 335, "is": 336, "en": 337, "es": 338, "Ġthe": 339, "an": 340, "er": 341, "ing": 342, "Ġc": 343, "Ġb": 344, "Ġf": 345, "it": 346, "ed": 347, "at": 348, "Ġp": 349, "Ġm": 350, "Ġhe": 351, "Ġto": 352, "Ã©": 353, "or": 354, "nd": 355, "ll": 356, "ar": 357, "Ġo": 358, "as": 359, "Ġth": 360, "et": 361, "Ġand": 362, "âĢ": 363, "om": 364, "Ġde": 365, "Ġn": 366, "âĢĻ": 367, "Ġg": 368, "Ġin": 369, "Ġy": 370, "le": 371, "Ġhis": 372, "Ġof": 373, "im": 374, "Ġyou": 375, "us": 376, "ow": 377, "ac": 378, "un": 379, "ad": 380, "Ġe": 381, "ent": 382, "ĠI": 383, "ic": 384, "el": 385, "id": 386, "Ġher": 387, "ot": 388, "ur": 389, "ut": 390, "al": 391, "gh": 392, "ve": 393, "Ġbe": 394, "qu": 395, "Ġwas": 396, "ion": 397, "Ġon": 398, "ly": 399, "Ġre": 400, "ld": 401, "Ġ\"": 402, "ay": 403, "Ġr": 404, "ĠS": 405, "Ġle": 406, "ĠH": 407, "Ġit": 408, "Ġst": 409, "Ġas": 410, "ver": 411, "ir": 412, "Ġla": 413, "st": 414, "Ġthat": 415, "est": 416, "Ġhim": 417, "out": 418, "ant": 419, ".\"": 420, "am": 421, "ith": 422, "ro": 423, "ke": 424, "and": 425, "Ġun": 426, "oo": 427, "il": 428, "Ġfor": 429, "ĠT": 430, "ght": 431, "Ġwith": 432, "ri": 433, "ĠÃ": 434, "ain": 435, "Ġen": 436, "ould": 437, "se": 438, "ill": 439, "ch": 440, "Ġli": 441, "Ġet": 442, "ĠA": 443, "..": 444, "Ġan": 445, "Ġwh": 446, "Ġshe": 447, "ce": 448, "Ġat": 449, "ĠÃł": 450, "all": 451, "up": 452, "ie": 453, "Ġk": 454, "em": 455, "ore": 456, "Ġsh": 457, "ĠM": 458, "Ġwe": 459, "ĠB": 460, "Ġse": 461, "pp": 462, "Ġj": 463, "her": 464, "ĠC": 465, "Ġha": 466, "Ġso": 467, "Ġest": 468, "ag": 469, "ĠHe": 470, "Ġqu": 471, "Ġcom": 472, "ck": 473, "our": 474, "Ġv": 475, "ct": 476, "if": 477, "Ġhad": 478, "Ġfr": 479, "Ġme": 480, "ust": 481, "art": 482, "ack": 483, "Ġcon": 484, "Ã¨": 485, "Ġne": 486, "ight": 487, "ne": 488, "res": 489, "ra": 490, "ter": 491, "Ġbut": 492, "rou": 493, "Ġdes": 494, "Ġdo": 495, "Ġup": 496, "Ġnot": 497, "te": 498, "ul": 499, "ĠL": 500, "Ġis": 501, "ol": 502, "ak": 503, "Ġdu": 504, "ans": 505, "os": 506, "Ġout": 507, "to": 508, "hing": 509, "ation": 510, "um": 511, "ook": 512, "Ġ(": 513, "red": 514, "ig": 515, "Ġyour": 516, "ard": 517, "ĠW": 518, "ab": 519, "'s": 520, "Ġall": 521, "Ġal": 522, "ĠD": 523, "Ġsa": 524, "Ġfe": 525, "que": 526, "ĠJ": 527, "Ġpl": 528, ",\"": 529, "hen": 530, "?\"": 531, "ĠP": 532, "ers": 533, "ĠR": 534, "ong": 535, "19": 536, "ort": 537, "ure": 538, "Ġback": 539, "Ġfrom": 540, "Ġag": 541, "ess": 542, "Ġch": 543, "ĠG": 544, "ĠThe": 545, "Ġab": 546, "ind": 547, "ist": 548, "od": 549, "You": 550, "Ġhand": 551, "ĠN": 552, "Ġcl": 553, "pe": 554, "ide": 555, "Ġex": 556, "Ġmy": 557, "Ġthis": 558, "Ġlike": 559, "own": 560, "ace": 561, "one": 562, "13": 563, "Ġsom": 564, "ry": 565, "ally": 566, "ire": 567, "10": 568, "ĠÃ©": 569, "Ġcould": 570, "Ġlook": 571, "Ġhave": 572, "Ġdid": 573, "Ġinto": 574, "Ġjust": 575, "'t": 576, "me": 577, "ps": 578, "hed": 579, "ven": 580, "...": 581, "Ã©e": 582, "Ġey": 583, "Ġkn": 584, "ĠK": 585, "Ġagain": 586, "Ġthey": 587, "ick": 588, "12": 589, "ast": 590, "Ġles": 591, "ond": 592, "Ġwould": 593, "ĠF": 594, "15": 595, "Ġpr": 596, "Ġsu": 597, "op": 598, "14": 599, "ine": 600, "ment": 601, "ate": 602, "Ġthem": 603, "Ġdans": 604, "sel": 605, "ĠE": 606, "ous": 607, "Ġune": 608, "Ġwant": 609, "iss": 610, "end": 611, "ood": 612, "Ġau": 613, "au": 614, "Ġwere": 615, "ep": 616, "Ġmo": 617, "Ġgo": 618, "Ġcan": 619, "Ġover": 620, "ci": 621, "ell": 622, "ont": 623, "Âł": 624, "Ġpro": 625, "ĠShe": 626, "Ġdown": 627, "ord": 628, "Ġsm": 629, "ake": 630, "ice": 631, "20": 632, "Ġpar": 633, "ink": 634, "Ġeyes": 635, "Ġknow": 636, "ang": 637, "fe": 638, "ique": 639, "Ġwhat": 640, "18": 641, "way": 642, "ime": 643, "self": 644, "Ġone": 645, "Ġsp": 646, "very": 647, "are": 648, "ue": 649, "Ġif": 650, "Ġsl": 651, "49": 652, "Ġwhen": 653, "Ġabout": 654, "ull": 655, "fore": 656, "uck": 657, "Ġlo": 658, "Ġbl": 659, "ale": 660, "iv": 661, "48": 662, "pl": 663, "ile": 664, "Ġfeel": 665, "47": 666, "43": 667, "Ġco": 668, "ĠdÃ©": 669, "Ġany": 670, "Ġget": 671, "Ġar": 672, "45": 673, "40": 674, "Ġtoo": 675, "round": 676, "46": 677, "Ġbefore": 678, "Ġmore": 679, "Ġgr": 680, "itt": 681, "Ġor": 682, "ap": 683, "ĠIt": 684, "The": 685, "ite": 686, "17": 687, "Ġro": 688, "ive": 689, "ait": 690, "Ġtime": 691, "Ġsaid": 692, "16": 693, "ame": 694, "Ġtheir": 695, "hat": 696, "urn": 697, "Ġno": 698, "42": 699, "ass": 700, "Ġfl": 701, "av": 702, "ais": 703, "He": 704, "ff": 705, "Ġqui": 706, "Ġhead": 707, "Ġoff": 708, "ther": 709, "ien": 710, "ress": 711, "Ġbeen": 712, "ft": 713, "Ġare": 714, "ge": 715, "ked": 716, "Ġsur": 717, "ough": 718, "Ġdidn": 719, "Ã©s": 720, "nt": 721, "Ġsome": 722, "ud": 723, "ĠO": 724, "Ġtr": 725, "ille": 726, "pt": 727, "Ġche": 728, "act": 729, "ath": 730, "be": 731, "Ġ19": 732, "use": 733, "Ġaround": 734, "bl": 735, "Ġeven": 736, "ely": 737, "ance": 738, "Ġnow": 739, "Ġbr": 740, "Ġsc": 741, "Ġsay": 742, "Ġby": 743, "Ġpart": 744, "ĠCh": 745, "ach": 746, "ich": 747, "Ġwor": 748, "we": 749, "90": 750, "83": 751, "Ġman": 752, "Ġhow": 753, "Ġbre": 754, "ĠrÃ©": 755, "Ġthere": 756, "80": 757, "ose": 758, "Ġdon": 759, "oy": 760, "ug": 761, "Ġface": 762, "ier": 763, "ĠYou": 764, "93": 765, "Ġway": 766, "Ġthen": 767, "ĠÂ": 768, "og": 769, "ound": 770, "Ġother": 771, "ade": 772, "und": 773, "age": 774, "ĠV": 775, "Ġcont": 776, "ens": 777, "ca": 778, "87": 779, "int": 780, "ber": 781, "86": 782, "95": 783, "che": 784, "Ġpre": 785, "Ġstill": 786, "aking": 787, "97": 788, "Ġthink": 789, "96": 790, "Ġim": 791, "dd": 792, "Ã¨re": 793, "Ġsee": 794, "Ġte": 795, "85": 796, "Le": 797, "elt": 798, "82": 799, "ip": 800, "able": 801, "ting": 802, "Ã©r": 803, "Ġlet": 804, "Ġevery": 805, "92": 806, "Ġpour": 807, "th": 808, "ĠY": 809, "uch": 810, "ement": 811, "Ġthan": 812, "tÃ©": 813, "Ġwho": 814, "fter": 815, "pr": 816, "ars": 817, "Ġneed": 818, "Ġpe": 819, "76": 820, "other": 821, "30": 822, "Ġcomm": 823, "Ġonly": 824, "ise": 825, "Ġlitt": 826, "pped": 827, "Ġshould": 828, "cc": 829, "Ġsomet": 830, "ward": 831, "Ġpo": 832, "Ġlong": 833, "Ġagainst": 834, "70": 835, "ies": 836, "rough": 837, "Ġtw": 838, "Ġbet": 839, "Ġus": 840, "iz": 841, "thing": 842, "Ġthrough": 843, "ought": 844, "ble": 845, "!\"": 846, "une": 847, "Ġent": 848, "Ġhands": 849, "ks": 850, "Ġam": 851, "Ġturn": 852, "Ġund": 853, "Ġaway": 854, "Ġmuch": 855, "Ġlittle": 856, "Ġapp": 857, "60": 858, "Ġho": 859, "22": 860, "led": 861, "Ġhimself": 862, "ings": 863, "Ġson": 864, "44": 865, "Ġsomething": 866, "oth": 867, "here": 868, "Ġfelt": 869, "Ġright": 870, "ome": 871, "ody": 872, "de": 873, "ann": 874, "Ġgl": 875, "az": 876, "50": 877, "ions": 878, "hy": 879, "Ġgoing": 880, "les": 881, "Ġplus": 882, "ung": 883, "ave": 884, "),": 885, "Ġvo": 886, "lle": 887, "ux": 888, "Ġthought": 889, "itÃ©": 890, "bb": 891, "Ġpull": 892, "Ġfo": 893, "ady": 894, "ved": 895, "63": 896, "Ġkne": 897, "73": 898, "Ġrem": 899, "Ġarm": 900, "It": 901, "Ġwat": 902, "Ġfin": 903, "75": 904, "si": 905, "Ġque": 906, "wn": 907, "Ġcr": 908, "99": 909, "Ġkiss": 910, "Ġke": 911, "leas": 912, "Ġact": 913, "king": 914, "Ġ,": 915, "vers": 916, "Ġwill": 917, "Ġdis": 918, "Ġfing": 919, "25": 920, "âĢĶ": 921, "ving": 922, "ah": 923, "ai": 924, "Ġunder": 925, "ated": 926, "66": 927, "Ġsit": 928, "Ġafter": 929, "per": 930, "ence": 931, "Ġmade": 932, "Ġlooked": 933, "erm": 934, "ity": 935, "ae": 936, "Ġgood": 937, "ors": 938, "urs": 939, "Ġmom": 940, "Ġstart": 941, "Ġbody": 942, "ign": 943, "ost": 944, "Ġdoes": 945, "Ġ:": 946, "Ġhas": 947, "Ġfir": 948, "Ã¨s": 949, "Ġnever": 950, "side": 951, "41": 952, "72": 953, "cause": 954, "98": 955, "ried": 956, "ĠnÃ©": 957, "65": 958, "ĠAnd": 959, "Ġmake": 960, "Ġhere": 961, "vec": 962, "ched": 963, "aire": 964, "Ġop": 965, "ob": 966, "ng": 967, "Ġgu": 968, "AC": 969, "Ġnom": 970, "Ġou": 971, "anc": 972, "AF": 973, "AE": 974, "Ġmoment": 975, "Ġroom": 976, "AB": 977, "Ġwasn": 978, "AD": 979, "ened": 980, "Ġcomp": 981, "35": 982, "Ãª": 983, "Ġstr": 984, "Ġhapp": 985, "Ġavec": 986, "La": 987, "Ã©t": 988, "11": 989, "outh": 990, "Ġwhile": 991, "00": 992, "Ġfuck": 993, "ious": 994, "ĠHis": 995, "Ġsk": 996, "ia": 997, "Ġgot": 998, "Ġad": 999, "ques": 1000, "igh": 1001, "ĠBut": 1002, "88": 1003, "Ġhel": 1004, "BC": 1005, "BE": 1006, "ince": 1007, "ily": 1008, "23": 1009, "77": 1010, "ha": 1011, "BF": 1012, "row": 1013, "BD": 1014, "Ġ20": 1015, "emand": 1016, "Ã©n": 1017, "ark": 1018, "ared": 1019, "ss": 1020, "She": 1021, "Ġmouth": 1022, "orn": 1023, "Ġtry": 1024, "arm": 1025, "Ġlips": 1026, "ching": 1027, "Ġhard": 1028, "Ġreally": 1029, "ert": 1030, "Ġday": 1031, "Ġem": 1032, "Ġbed": 1033, "Ġown": 1034, "Ġtake": 1035, "Ġbeing": 1036, "Ġrel": 1037, "Ġfirst": 1038, "ling": 1039, "ian": 1040, "Ġwanted": 1041, "Ġvoice": 1042, "ction": 1043, "Ġtwo": 1044, "Ã¯": 1045, "orm": 1046, "26": 1047, "Ġatt": 1048, "33": 1049, "89": 1050, "Ġallemand": 1051, "aut": 1052, "uis": 1053, "onn": 1054, "get": 1055, "Ġbecause": 1056, "Ġbit": 1057, "ream": 1058, "ui": 1059, "ĠÃ©t": 1060, "Ġres": 1061, "...\"": 1062, "En": 1063, "Ã©es": 1064, "55": 1065, "Ġclos": 1066, "xt": 1067, "bre": 1068, "Ã©d": 1069, "ĠÂ»": 1070, "Ġseem": 1071, "ful": 1072, "Ġknew": 1073, "ĠTh": 1074, "Ġhelp": 1075, "Ġsec": 1076, "hes": 1077, ").": 1078, "Ġsure": 1079, "Ġtell": 1080, "Ġbeg": 1081, "Ġword": 1082, "Ġcouldn": 1083, "ĠÂ«": 1084, "Ġdr": 1085, "cl": 1086, "ted": 1087, "Ġsw": 1088, "Ġce": 1089, "ied": 1090, "iste": 1091, "ather": 1092, "Ġasked": 1093, "Ġfingers": 1094, "akes": 1095, "ons": 1096, "Ġmort": 1097, "Ġcar": 1098, "Ġboth": 1099, "Ġ-": 1100, "Ġrest": 1101, "air": 1102, "Ġenough": 1103, "riend": 1104, "67": 1105, "Ġwhere": 1106, "ix": 1107, "Ġtook": 1108, "Ġcou": 1109, "ations": 1110, "ween": 1111, "iÃ¨re": 1112, "ult": 1113, "Ġdoor": 1114, "Ġfam": 1115, "Ġsays": 1116, "EE": 1117, "ph": 1118, "Ġlove": 1119, "ves": 1120, "84": 1121, "arl": 1122, "ern": 1123, "53": 1124, "FC": 1125, "62": 1126, "ĠZ": 1127, "olog": 1128, "Ġbetween": 1129, "ins": 1130, "Ġhair": 1131, "ree": 1132, "Ġass": 1133, "ok": 1134, "Ġville": 1135, "DC": 1136, "Ġsitu": 1137, "ient": 1138, "94": 1139, "inn": 1140, "BB": 1141, "aring": 1142, "Ġtra": 1143, "Ġunt": 1144, "AA": 1145, "Ġsoft": 1146, "Ġmind": 1147, "Ġwell": 1148, "Ġcour": 1149, "Ġreal": 1150, "Ġnight": 1151, "ways": 1152, "Ġper": 1153, "Ġtal": 1154, "ating": 1155, "Ġfew": 1156, "ants": 1157, "pping": 1158, "Ġpos": 1159, "DE": 1160, "Ġwal": 1161, "ren": 1162, "Ġhold": 1163, "ict": 1164, "\",": 1165, "Ġimp": 1166, "Ġcome": 1167, "Ġdoesn": 1168, "Ġside": 1169, "Ġanything": 1170, "Ġpus": 1171, "FE": 1172, "ish": 1173, "05": 1174, "Ġac": 1175, "Ġbreath": 1176, "Ġspe": 1177, "Ġsmile": 1178, "81": 1179, "Ġbeh": 1180, "oud": 1181, "rie": 1182, "Ġsmil": 1183, "Ġdeep": 1184, "Ġuntil": 1185, "rit": 1186, "ĠWe": 1187, "Ġrec": 1188, "Ġgre": 1189, "tre": 1190, "Ġtou": 1191, "Ġsound": 1192, "32": 1193, "Ġpleas": 1194, "Ġanother": 1195, "ats": 1196, "Ġpress": 1197, "69": 1198, "Ġsup": 1199, "ĠThey": 1200, "ually": 1201, "Ġmat": 1202, "Ġcock": 1203, "FD": 1204, "Ġlast": 1205, "37": 1206, "Ġconf": 1207, "CC": 1208, "ub": 1209, "ips": 1210, "Ġfind": 1211, "Ġph": 1212, "Ġvery": 1213, "Ġslow": 1214, "Ġthough": 1215, "oh": 1216, "'m": 1217, "Ġgra": 1218, "aux": 1219, "Ġchest": 1220, "Ġinside": 1221, "so": 1222, "ank": 1223, "ully": 1224, "Ġkeep": 1225, "urt": 1226, "Ġcle": 1227, "Ġmar": 1228, "Ġeach": 1229, "Un": 1230, "Ġav": 1231, "Ġput": 1232, "Ġcomme": 1233, "Ġlooking": 1234, "ition": 1235, "Ġleft": 1236, "ail": 1237, "Ġsn": 1238, "eb": 1239, "ross": 1240, "ten": 1241, "Ġnod": 1242, "07": 1243, "ax": 1244, "DD": 1245, "Ġdist": 1246, "Ġel": 1247, "uff": 1248, "âĢĵ": 1249, "ready": 1250, "56": 1251, "Ġheart": 1252, "91": 1253, "most": 1254, "Ġalways": 1255, "27": 1256, "Ġans": 1257, "iques": 1258, "Ġarms": 1259, "Ġinst": 1260, "FF": 1261, "Ġopen": 1262, "Ġil": 1263, "ĠLe": 1264, "Ġbehind": 1265, "Ġquick": 1266, "Ġthings": 1267, "Ġalready": 1268, "Ġret": 1269, "Ġcons": 1270, "ho": 1271, "vent": 1272, "Ġturned": 1273, "ĠSt": 1274, "Ġlight": 1275, "Ġaux": 1276, "Ġaut": 1277, "Ġonce": 1278, "ness": 1279, "Ġdif": 1280, "BA": 1281, "ĠFr": 1282, "Ġend": 1283, "Ã©m": 1284, "And": 1285, "CE": 1286, "Ġleg": 1287, "Ġfeeling": 1288, "ches": 1289, "03": 1290, "aybe": 1291, "rent": 1292, "ty": 1293, "Ġthing": 1294, "Ġsont": 1295, "Ġter": 1296, "Ġes": 1297, "gether": 1298, "Ġye": 1299, "ĠAl": 1300, "Ġever": 1301, "59": 1302, "eur": 1303, "ock": 1304, "Ã§": 1305, "aw": 1306, "Ġcare": 1307, "Ġwords": 1308, "ek": 1309, "amp": 1310, "Ġcall": 1311, "Ġtrying": 1312, "ĠrÃ©g": 1313, "ces": 1314, "Ġinter": 1315, "Ġtogether": 1316, "What": 1317, "ower": 1318, "Ġsecond": 1319, "Ġalmost": 1320, "02": 1321, "36": 1322, "Ġpers": 1323, "pect": 1324, "57": 1325, "oc": 1326, "Ġfriend": 1327, "ois": 1328, "Ġste": 1329, "52": 1330, "ĠRe": 1331, "erv": 1332, "ret": 1333, "irl": 1334, "ubl": 1335, "Ġpoint": 1336, "Ġcur": 1337, "Ġtoward": 1338, "Th": 1339, "Ã©c": 1340, "06": 1341, "'re": 1342, "Ġplace": 1343, "Ġsmall": 1344, "med": 1345, "Ġcontin": 1346, "Ġnext": 1347, "ase": 1348, "Ġwhich": 1349, "58": 1350, "iel": 1351, "fect": 1352, "Ġcame": 1353, "Ġhum": 1354, "Ġfront": 1355, "ently": 1356, "aine": 1357, "Ġmaking": 1358, "79": 1359, "Ġmin": 1360, "Ġsame": 1361, "Ġswe": 1362, "ople": 1363, "Ġcommune": 1364, "Ġ.": 1365, "09": 1366, "Ġcompl": 1367, "Ġ18": 1368, "Ġwr": 1369, "Ġprem": 1370, "ina": 1371, "Ġskin": 1372, "Les": 1373, "Ġprin": 1374, "ib": 1375, "ple": 1376, "īt": 1377, "ged": 1378, "EC": 1379, "ĠSe": 1380, "Ġwait": 1381, "ild": 1382, "Ġint": 1383, "Ġset": 1384, "iÃ¨": 1385, "ense": 1386, "less": 1387, "uk": 1388, "ering": 1389, "vel": 1390, "aint": 1391, "ĠHer": 1392, "DF": 1393, "78": 1394, "Ġdro": 1395, "Ã©g": 1396, "Ġlife": 1397, "owed": 1398, "21": 1399, "Ġsil": 1400, "Ġpass": 1401, "Ġtight": 1402, "ĠÃ©tÃ©": 1403, "Ã¢": 1404, "Ġherself": 1405, "app": 1406, "29": 1407, "Ġmus": 1408, "leep": 1409, "'d": 1410, "du": 1411, "its": 1412, "Ġneck": 1413, "38": 1414, "ĠSte": 1415, "Ã´": 1416, "ĠIn": 1417, "01": 1418, "Ġbel": 1419, "ette": 1420, "68": 1421, "Ġob": 1422, "ĠSo": 1423, "Ġexp": 1424, "li": 1425, "arly": 1426, "Ġform": 1427, "ary": 1428, "24": 1429, "cip": 1430, "Ġgrand": 1431, "ĠBe": 1432, "Ġpeople": 1433, "Ġann": 1434, "Ġnothing": 1435, "71": 1436, "onde": 1437, "ately": 1438, "imes": 1439, "ĠNe": 1440, "DA": 1441, "Ġmost": 1442, "ric": 1443, "aned": 1444, "Ġeverything": 1445, "Ġses": 1446, "Ġnew": 1447, "fort": 1448, "Ġwhy": 1449, "Ġfil": 1450, "Ġtold": 1451, "Ġlau": 1452, "owing": 1453, "39": 1454, "Ġboy": 1455, "arn": 1456, "CF": 1457, "ool": 1458, "Ġclose": 1459, "used": 1460, "Ġang": 1461, "EF": 1462, "28": 1463, "Ġpulled": 1464, "But": 1465, "Ġthose": 1466, "64": 1467, "Ġmem": 1468, "ĠAs": 1469, "kay": 1470, "Ġwithout": 1471, "Ġfinally": 1472, "08": 1473, "ts": 1474, "Ã®": 1475, "Ġgirl": 1476, "lin": 1477, "ny": 1478, "Ġsat": 1479, "Ġbetter": 1480, "ably": 1481, "part": 1482, "Ġca": 1483, "ov": 1484, "ention": 1485, "Ġpain": 1486, "ienne": 1487, "Ã©l": 1488, "lex": 1489, "ows": 1490, "ik": 1491, "DB": 1492, "Ġwarm": 1493, "Ġexpl": 1494, "Ġstand": 1495, "ru": 1496, "agne": 1497, "No": 1498, "Ġwent": 1499, "Oh": 1500, "Ġacc": 1501, "Ġpol": 1502, "Ġmove": 1503, "Ġstarted": 1504, "Ġwork": 1505, "Ġour": 1506, "Ġrun": 1507, "right": 1508, "Ġreac": 1509, "Ġcent": 1510, "oman": 1511, "74": 1512, "54": 1513, "alf": 1514, "fully": 1515, "ange": 1516, "Ġdoing": 1517, "34": 1518, "ash": 1519, "ĠSh": 1520, "Ġonto": 1521, "Ġplay": 1522, "Ġfound": 1523, "ĠdÃ©c": 1524, "Ġdec": 1525, "Ġsous": 1526, "ident": 1527, "ĠThat": 1528, "ertain": 1529, "Ġsince": 1530, "Ġwhis": 1531, "af": 1532, "ĠÃ©c": 1533, "Ġprincip": 1534, "Ġstop": 1535, "ets": 1536, "Ġgetting": 1537, "Ġthro": 1538, "alement": 1539, "ED": 1540, "That": 1541, "We": 1542, "04": 1543, "Ġsim": 1544, "ouse": 1545, "fin": 1546, "EA": 1547, "Ġentre": 1548, "alm": 1549, "Ġdark": 1550, "day": 1551, "Ġsomeone": 1552, "Ġmight": 1553, "ded": 1554, "Ġfall": 1555, "Ġlooks": 1556, "FA": 1557, "CD": 1558, "Ġslowly": 1559, "ped": 1560, "Ġgive": 1561, "CA": 1562, "Ġelse": 1563, "Ġlegs": 1564, "Ġ;": 1565, "Ġtried": 1566, "Ġmean": 1567, "ĠrÃ©gion": 1568, "\".": 1569, "61": 1570, "Ġalso": 1571, "Ġflo": 1572, "FB": 1573, "ĠU": 1574, "min": 1575, "uc": 1576, "ides": 1577, "CB": 1578, "51": 1579, "Ġsaw": 1580, "EB": 1581, "31": 1582, "Ġfucking": 1583, "ĠâĢĵ": 1584, "Ġtong": 1585, "Ġseemed": 1586, "Ġquickly": 1587, "ging": 1588, "ures": 1589, "Ġquest": 1590, "Ġtowards": 1591, "io": 1592, "ĠHar": 1593, "Ġyet": 1594, "Ġstay": 1595, "Ġcat": 1596, "ory": 1597, "Ġmet": 1598, "ott": 1599, "Ġhome": 1600, "ĠsituÃ©e": 1601, "Ġdev": 1602, "Ġtrou": 1603, "rich": 1604, "ĠThere": 1605, "Ġfait": 1606, "Ġlaugh": 1607, "Al": 1608, "Ġdeux": 1609, "ĠMar": 1610, "Ġdire": 1611, "Ġfeels": 1612, "riv": 1613, "Ġwouldn": 1614, "ote": 1615, "att": 1616, "ivers": 1617, "Ã©p": 1618, "oke": 1619, "Ġbest": 1620, "Ġslight": 1621, "alis": 1622, "rac": 1623, "ony": 1624, "Ġhips": 1625, "Ġdone": 1626, "ove": 1627, "ner": 1628, "Ġrais": 1629, "ater": 1630, "ening": 1631, "Ġaw": 1632, "com": 1633, "Ġmais": 1634, "Ġpas": 1635, "Ġtongue": 1636, "ush": 1637, "Ġkind": 1638, "Ġacross": 1639, "ours": 1640, "Ġtaking": 1641, "Ġits": 1642, "Ġbo": 1643, "Ġcontinu": 1644, "rat": 1645, "cept": 1646, "ically": 1647, "ex": 1648, "Ġinf": 1649, "Ġeas": 1650, "isse": 1651, "Ã¼": 1652, "Ġgave": 1653, "ines": 1654, "prÃ¨s": 1655, "Ġind": 1656, "Ġsmiled": 1657, "ean": 1658, "pos": 1659, "Ġdont": 1660, "Ġshoulder": 1661, "Ġsleep": 1662, "elle": 1663, "ead": 1664, "port": 1665, "dden": 1666, "Ġsou": 1667, "orry": 1668, "Ġfoll": 1669, "Ġremem": 1670, "Ġresp": 1671, "Ġfore": 1672, "Ã©ri": 1673, "Ġsto": 1674, "Ġroll": 1675, "Ġgaz": 1676, "Ġunderst": 1677, "'ll": 1678, "irt": 1679, "ourg": 1680, "aught": 1681, "Ġquiet": 1682, "ered": 1683, "Ġsudden": 1684, "ual": 1685, "Ãªme": 1686, "ales": 1687, "Ġsurpr": 1688, "ute": 1689, "ĠCl": 1690, "Ġsy": 1691, "ĠIf": 1692, "ced": 1693, "Ġfar": 1694, "So": 1695, "ouve": 1696, "uss": 1697, "Ġhear": 1698, "ante": 1699, "Ġperson": 1700, "els": 1701, "itting": 1702, "Ġconst": 1703, "Ġprov": 1704, "ured": 1705, "Ġgro": 1706, "ĠBer": 1707, "Ġalong": 1708, "Ġthroat": 1709, "Ġbegan": 1710, "eks": 1711, "ĠGr": 1712, "omm": 1713, "ze": 1714, "Ġheard": 1715, "Ġair": 1716, "ature": 1717, "Ġsens": 1718, "Ġwall": 1719, "Ch": 1720, "ither": 1721, "Ġcap": 1722, "Ġsuch": 1723, "They": 1724, "anÃ§": 1725, "Ġtre": 1726, "ipp": 1727, "Ġtable": 1728, "ained": 1729, "Ġser": 1730, "Ġold": 1731, "Ġbreat": 1732, "Ġleave": 1733, "Ġblood": 1734, "Ã¶": 1735, "br": 1736, "Ġneeded": 1737, "Ġdri": 1738, "Ġcertain": 1739, "Ġins": 1740, "Ġsoon": 1741, "--": 1742, "Ġpret": 1743, "Ġfut": 1744, "ays": 1745, "Ġred": 1746, "Ġvis": 1747, "Ġfur": 1748, "Ġpat": 1749, "Ġconc": 1750, "eth": 1751, "Ġnodded": 1752, "ĠSteve": 1753, "Ġleast": 1754, "In": 1755, "ike": 1756, "Ġgri": 1757, "Ġheld": 1758, "Ġtouch": 1759, "Ġcomplet": 1760, "Ġcre": 1761, "icked": 1762, "ee": 1763, "Ġprob": 1764, "Ġcor": 1765, "da": 1766, "Ġable": 1767, "Ġcourse": 1768, "ying": 1769, "Ġpartie": 1770, "Ġfloor": 1771, "Ġhadn": 1772, "Ġ(\"": 1773, "As": 1774, "oir": 1775, "ya": 1776, "ane": 1777, "Ġmiss": 1778, "Ġcloser": 1779, "ley": 1780, "rice": 1781, "Ġplac": 1782, "nÃ©": 1783, "bert": 1784, "Ġhaving": 1785, "nes": 1786, "Ġgiv": 1787, "aving": 1788, "Ãł": 1789, "ĠAr": 1790, "erre": 1791, "Ġcommun": 1792, "ĠJoh": 1793, "Ã¹": 1794, "ages": 1795, "Ġtop": 1796, "Ġpop": 1797, "Ġwra": 1798, "Ġmany": 1799, "ĠWhat": 1800, "Ġhalf": 1801, "ĠAn": 1802, "Ġrealiz": 1803, "Ġinc": 1804, "Ġtalk": 1805, "Ġfill": 1806, "ene": 1807, "Ġtri": 1808, "Ġreturn": 1809, "arr": 1810, "raw": 1811, "ione": 1812, "Ġbare": 1813, "Ġmont": 1814, "yl": 1815, "Ġwater": 1816, "ised": 1817, "Ġhot": 1818, "bbed": 1819, "ddie": 1820, "ined": 1821, "Ġmakes": 1822, "ĠThis": 1823, "land": 1824, "ason": 1825, "ical": 1826, "ents": 1827, "Ġconn": 1828, "Ġbig": 1829, "Ġokay": 1830, "raco": 1831, "Ġlot": 1832, "Ġforward": 1833, "Ġje": 1834, "Ġreg": 1835, "Ġdem": 1836, "berg": 1837, "Ġgen": 1838, "Ġbad": 1839, "Ġnord": 1840, "bs": 1841, "arent": 1842, "Ġfamille": 1843, "cien": 1844, "Ã©ric": 1845, "ara": 1846, "je": 1847, "anÃ§ais": 1848, "Ġhurt": 1849, "Ġdiffe": 1850, "ĠAll": 1851, "room": 1852, "ermione": 1853, "idd": 1854, "Ġthr": 1855, "Ġthigh": 1856, "ĠÃ©g": 1857, "ĠNot": 1858, "Ġide": 1859, "Ġsign": 1860, "Ġmeet": 1861, "ial": 1862, "zy": 1863, "Ġwon": 1864, "ĠNo": 1865, "Ġru": 1866, "Ġtem": 1867, "ba": 1868, "Ġprom": 1869, "Ġcoming": 1870, "eah": 1871, "Ġvill": 1872, "ression": 1873, "ains": 1874, "Ġsort": 1875, "oon": 1876, "Ġname": 1877, "Ġsel": 1878, "ĠHarry": 1879, "Ġpast": 1880, "fa": 1881, "but": 1882, "tered": 1883, "Ġused": 1884, "Ġpolit": 1885, "agn": 1886, "Ġmust": 1887, "Ġsex": 1888, "'ve": 1889, "ĠfranÃ§ais": 1890, "head": 1891, "umbl": 1892, "Ġyears": 1893, "Ġwoman": 1894, "Ġholding": 1895, "Ġunderstand": 1896, "Ġsque": 1897, "Ġactually": 1898, "Ġfond": 1899, "Ġpartic": 1900, "ji": 1901, "Ġloud": 1902, "Ġslightly": 1903, "Ġimport": 1904, "Ġgently": 1905, "Ġseen": 1906, "Ġask": 1907, "Ġrepl": 1908, "Ġquestion": 1909, "ec": 1910, "His": 1911, "ished": 1912, "bd": 1913, "Ġbelie": 1914, "aires": 1915, "ĠÃ©tait": 1916, "ĠQ": 1917, "iding": 1918, "uring": 1919, "Ġworld": 1920, "ames": 1921, "Ġmaybe": 1922, "Ġpopul": 1923, "Ġref": 1924, "Ġwhole": 1925, "old": 1926, "ris": 1927, "ys": 1928, "olf": 1929, "ussi": 1930, "esse": 1931, "ume": 1932, "Ġprobably": 1933, "insi": 1934, "rois": 1935, "bbing": 1936, "ided": 1937, "Well": 1938, "Ġfull": 1939, "Ġmoved": 1940, "Ġknows": 1941, "ĠBr": 1942, "Ġexc": 1943, "Ġdep": 1944, "Ġansw": 1945, "lease": 1946, "Ġexpect": 1947, "Ġisn": 1948, "ĠX": 1949, "Ġgaze": 1950, "iously": 1951, "aster": 1952, "Ġyourself": 1953, "ton": 1954, "ĠHow": 1955, "va": 1956, "Ġhappened": 1957, "Ġsud": 1958, "ĠoÃ¹": 1959, "Ġbreak": 1960, "ply": 1961, "ning": 1962, "ues": 1963, "Ġinv": 1964, "Ġentire": 1965, "Ġbeaut": 1966, "opp": 1967, "aa": 1968, "aur": 1969, "hel": 1970, "Ġfight": 1971, "ĠSch": 1972, "Ġpleasure": 1973, "Ġdiff": 1974, "Ġalone": 1975, "org": 1976, "Ġadd": 1977, "sh": 1978, "ef": 1979, "Ġbro": 1980, "ĠAd": 1981, "Ġgas": 1982, "Ġlar": 1983, "Ġpossi": 1984, "Ġprof": 1985, "ired": 1986, "Ġpres": 1987, "Ġmess": 1988, "Ġstood": 1989, "Ġkept": 1990, "emagne": 1991, "ĠWhen": 1992, "Ġdistr": 1993, "Ġready": 1994, "Ġthese": 1995, "Ġidea": 1996, "All": 1997, "Ġdifferent": 1998, "ipped": 1999, "Ġsweet": 2000, "ĠEddie": 2001, "rest": 2002, "bc": 2003, "Ġchuck": 2004, "Ġtimes": 2005, "Ġsigh": 2006, "aning": 2007, "Ġwalked": 2008, "Ġsorry": 2009, "Ġdream": 2010, "Ġblack": 2011, "read": 2012, "ule": 2013, "bit": 2014, "Ġstom": 2015, "ius": 2016, "ots": 2017, "Ãīt": 2018, "ouver": 2019, "bf": 2020, "bourg": 2021, "ublique": 2022, "Yes": 2023, "ates": 2024, "Ġfeet": 2025, "rop": 2026, "Ġorg": 2027, "Ġfig": 2028, "ĠPr": 2029, "imin": 2030, "eng": 2031, "ever": 2032, "Ġground": 2033, "Ġpa": 2034, "Ġtakes": 2035, "Ġut": 2036, "ĠprÃ©s": 2037, "Ġtrans": 2038, "Ġpulling": 2039, "Ġbar": 2040, "Ġkill": 2041, "endant": 2042, "Ġadm": 2043, "Ġmatter": 2044, "Ġaussi": 2045, "Ġont": 2046, "Ġesp": 2047, "Ġheav": 2048, "Ġsho": 2049, "rew": 2050, "cess": 2051, "Ġhappy": 2052, "Ġdou": 2053, "Ġquite": 2054, "Yeah": 2055, "ron": 2056, "joy": 2057, "ateur": 2058, "Ġbec": 2059, "Ġnombre": 2060, "Ġainsi": 2061, "Ġphone": 2062, "ments": 2063, "Ġdel": 2064, "Ġanyone": 2065, "usqu": 2066, "ude": 2067, "Ġyoung": 2068, "Ġsuddenly": 2069, "Ġwants": 2070, "ĠÃīt": 2071, "Ġwind": 2072, "atever": 2073, "Ã©ra": 2074, "oll": 2075, "Ġhouse": 2076, "orning": 2077, "ĠBl": 2078, "Ġreached": 2079, "pered": 2080, "Ġcomfort": 2081, "Ġed": 2082, "ili": 2083, "Ġlui": 2084, "ushed": 2085, "Ġlift": 2086, "iful": 2087, "Ġthinking": 2088, "Ġshoulders": 2089, "An": 2090, "Ġbab": 2091, "ilis": 2092, "irc": 2093, "Ġocc": 2094, "aist": 2095, "Ġlow": 2096, "ĠDraco": 2097, "Ġsig": 2098, "Ġwond": 2099, "gy": 2100, "mm": 2101, "Ġpretty": 2102, "Ġpet": 2103, "Ġmag": 2104, "Ġvon": 2105, "Ġfact": 2106, "Ġpuis": 2107, "There": 2108, "Ġeye": 2109, "Ġlist": 2110, "iers": 2111, "lect": 2112, "Ġchild": 2113, "Ġgrou": 2114, "Ġtears": 2115, "ĠBerlin": 2116, "Ġstomach": 2117, "Ġperfect": 2118, "Ġeveryone": 2119, "Ġdays": 2120, "medi": 2121, "Ġcheek": 2122, "anger": 2123, "Ġwatched": 2124, "rÃ©": 2125, "ĠrÃ©p": 2126, "alt": 2127, "Ġlater": 2128, "onna": 2129, "iver": 2130, "Ġma": 2131, "ĠJohn": 2132, "Ġvers": 2133, "cial": 2134, "Ġgone": 2135, "Ġattention": 2136, "Ġenjoy": 2137, "Ġwet": 2138, "Ġalors": 2139, "Ġord": 2140, "Ġcold": 2141, "ping": 2142, "ĠÃ©galement": 2143, "Ġbrother": 2144, "fd": 2145, "Ġtout": 2146, "Ġshow": 2147, "co": 2148, "Ġwatching": 2149, "ask": 2150, "Ġz": 2151, "Ġconsid": 2152, "oire": 2153, "uel": 2154, "Ġaf": 2155, "Ġbur": 2156, "Ġfather": 2157, "Ar": 2158, "Ġclot": 2159, "Ġcry": 2160, "na": 2161, "cked": 2162, "Ġthree": 2163, "Ġclosed": 2164, "iÃ©": 2165, "sy": 2166, "ĠAlex": 2167, "Ġcompletely": 2168, "uses": 2169, "Ġwrong": 2170, "ĠGe": 2171, "ones": 2172, "Ġprodu": 2173, "alitÃ©": 2174, "Ġinstead": 2175, "Ġmil": 2176, "Ġbring": 2177, "Ġasks": 2178, "action": 2179, "Ġ)": 2180, "gg": 2181, "Ġremember": 2182, "ils": 2183, "unt": 2184, "Ġcoll": 2185, "Ġsquee": 2186, "antly": 2187, "Ġfree": 2188, "Ġcontinued": 2189, "aÃ¯": 2190, "Au": 2191, "lu": 2192, "Ġpressed": 2193, "omme": 2194, "ird": 2195, "Ġdress": 2196, "ler": 2197, "When": 2198, "ĠamÃ©ric": 2199, "ĠmÃªme": 2200, "Ġread": 2201, "Ġnotic": 2202, "Ġmorning": 2203, "If": 2204, "aken": 2205, "Ġfine": 2206, "Ġdirect": 2207, "Ġimmedi": 2208, "Ġcheeks": 2209, "ĠChine": 2210, "Ġsoftly": 2211, "Ġpubl": 2212, "Ġcol": 2213, "Ġexact": 2214, "Be": 2215, "cd": 2216, "ĠHermione": 2217, "Ġeither": 2218, "ister": 2219, "Ġjusqu": 2220, "aged": 2221, "Ġfinger": 2222, "ited": 2223, "Ġfun": 2224, "\")": 2225, "Ġopened": 2226, "Ġfriends": 2227, "ungk": 2228, "Ġnouve": 2229, "Ġabs": 2230, "Ġleaving": 2231, "Ġfilm": 2232, "aehy": 2233, "Ġfoot": 2234, "ouest": 2235, "Ġhon": 2236, "ĠThen": 2237, "umb": 2238, "aked": 2239, "ĠGu": 2240, "otion": 2241, "How": 2242, "Ġstrong": 2243, "Ġdepuis": 2244, "ingly": 2245, "ises": 2246, "Ġlonger": 2247, "Ġdrag": 2248, "cf": 2249, "icking": 2250, "ste": 2251, "ount": 2252, "Ġsighed": 2253, "ĠOr": 2254, "ungkook": 2255, "chen": 2256, "Ġlim": 2257, "ific": 2258, "Ġuse": 2259, "Ġbott": 2260, "ĠaprÃ¨s": 2261, "ĠSam": 2262, "Ġstra": 2263, "ĠgÃ©n": 2264, "Ġstro": 2265, "Ġbeautiful": 2266, "rol": 2267, "Ġbarely": 2268, "Ġmay": 2269, "Ġpur": 2270, "ĠthÃ©": 2271, "Ġmoving": 2272, "Ġreason": 2273, "This": 2274, "Ġelle": 2275, "Ġfoc": 2276, "mer": 2277, "eter": 2278, "udd": 2279, "utes": 2280, "Ġenc": 2281, "Ġclass": 2282, "Ġsub": 2283, "uz": 2284, "iens": 2285, "Ġmen": 2286, "Ġleaned": 2287, "Ġapart": 2288, "Ġstopped": 2289, "Ġburn": 2290, "Ġsitting": 2291, "Ġprovince": 2292, "Ġmother": 2293, "where": 2294, "Ġless": 2295, "Ġkissed": 2296, "Ġsing": 2297, "Ġport": 2298, "Ġcut": 2299, "vre": 2300, "Ġgiving": 2301, "ĠâĢĶ": 2302, "ĠFrance": 2303, "sk": 2304, "ĠSaint": 2305, "Ġshirt": 2306, "Ġlie": 2307, "Ġdrink": 2308, "Ãī": 2309, "Ġshif": 2310, "mp": 2311, "Ġfamily": 2312, "Ġlost": 2313, "Ġimmediately": 2314, "Ġprincipale": 2315, "Ġur": 2316, "Ġtalking": 2317, "orte": 2318, "ending": 2319, "Ġshook": 2320, "Ġbelieve": 2321, "Ġmyself": 2322, "Ġlors": 2323, "Do": 2324, "Ġhop": 2325, "ode": 2326, "rist": 2327, "vi": 2328, "Ġplease": 2329, "Ġfell": 2330, "ogra": 2331, "Ġpays": 2332, "ett": 2333, "Ġsmir": 2334, "aul": 2335, "Ãītat": 2336, "roÃ¯": 2337, "tor": 2338, "Ġna": 2339, "Ġdi": 2340, "Ã©v": 2341, "iven": 2342, "ster": 2343, "ĠWith": 2344, "ĠRo": 2345, "ĠMin": 2346, "asm": 2347, "Ġpremier": 2348, "Ġcaught": 2349, "Ġexpression": 2350, "Ġfac": 2351, "Ġsent": 2352, "Ġcirc": 2353, "asse": 2354, "ible": 2355, "ĠIz": 2356, "oss": 2357, "Don": 2358, "orge": 2359, "ugg": 2360, "Unis": 2361, "Ġshort": 2362, "als": 2363, "Ġpolitique": 2364, "ouis": 2365, "Ġplan": 2366, "ĠMy": 2367, "Ġpushed": 2368, "ole": 2369, "Ġvie": 2370, "ances": 2371, "Ġear": 2372, "Ġbrou": 2373, "aient": 2374, "ĠÃītats": 2375, "Ġletting": 2376, "Ġthrust": 2377, "Ġshut": 2378, "ison": 2379, "Ã©rie": 2380, "-\"": 2381, "Ġmeant": 2382, "ĠEd": 2383, "ief": 2384, "ourn": 2385, "oph": 2386, "Ġcette": 2387, "more": 2388, "Ġthoughts": 2389, "Ġfle": 2390, "Ġjo": 2391, "Ġbes": 2392, "Ġhit": 2393, "Ġlay": 2394, "inture": 2395, "ieurs": 2396, "Ã¡": 2397, "iqu": 2398, "Ġteeth": 2399, "Ġspeak": 2400, "Ġwhispered": 2401, "Ġstud": 2402, "Ġext": 2403, "itÃ©s": 2404, "by": 2405, "you": 2406, "Ã®t": 2407, "Ġsol": 2408, "Ġsun": 2409, "Ġminutes": 2410, "Ġant": 2411, "Ġemb": 2412, "Ġanswer": 2413, "man": 2414, "Ġbook": 2415, "ĠÃ©p": 2416, "onse": 2417, "Ġmur": 2418, "aining": 2419, "ator": 2420, "ires": 2421, "Ġbrought": 2422, "Ġwaist": 2423, "nce": 2424, "Ġwaiting": 2425, "Ġlaug": 2426, "ĠJust": 2427, "olut": 2428, "Ġglass": 2429, "Ġcentre": 2430, "igg": 2431, "uth": 2432, "Ġlaughed": 2433, "Il": 2434, "Ġhigh": 2435, "Ġimag": 2436, "Ġcalled": 2437, "Åĵ": 2438, "uh": 2439, "Ġpower": 2440, "df": 2441, "Ġstre": 2442, "Ġcompos": 2443, "Ġfire": 2444, "ĠnÃ©e": 2445, "Ġmon": 2446, "Ġsense": 2447, "Ġscream": 2448, "Ġdesper": 2449, "Ġtrois": 2450, "aste": 2451, "ject": 2452, "ĠDe": 2453, "Ġthighs": 2454, "Ġappe": 2455, "amn": 2456, "ĠSan": 2457, "ugged": 2458, "Ġnice": 2459, "ope": 2460, "Ġlarge": 2461, "Ġstanding": 2462, "ĠLa": 2463, "vir": 2464, "Ġrunning": 2465, "ĠLu": 2466, "ĠMe": 2467, "Ġsuisse": 2468, "Ġparticul": 2469, "Ġgrow": 2470, "ĠpremiÃ¨re": 2471, "inning": 2472, "Ġwhite": 2473, "aehyung": 2474, "Ġcorn": 2475, "Ġhope": 2476, "Ġturning": 2477, "Ġseeing": 2478, "Ġbaby": 2479, "Not": 2480, "roÃ¯de": 2481, "ĠCharl": 2482, "Ġmer": 2483, "jin": 2484, "ĠastÃ©": 2485, "Ġbus": 2486, "Ġperm": 2487, "Ã¨ne": 2488, "icip": 2489, "Ġdet": 2490, "ming": 2491, "Ġcin": 2492, "Ġran": 2493, "Ġsight": 2494, "pite": 2495, "hys": 2496, "itch": 2497, "ĠastÃ©roÃ¯de": 2498, "ĠEl": 2499, "Ġoutside": 2500, "arch": 2501, "Ġwhatever": 2502, "Ġexactly": 2503, "Ġchang": 2504, "Sh": 2505, "Ġloc": 2506, "ĠPar": 2507, "ger": 2508, "ĠFor": 2509, "host": 2510, "rence": 2511, "ĠespÃ¨": 2512, "amment": 2513, "Ġfurther": 2514, "Ġshr": 2515, "antes": 2516, "Ġrather": 2517, "Ġgreat": 2518, "ĠAng": 2519, "Ġallemande": 2520, "Ġintern": 2521, "Ġago": 2522, "Ġturns": 2523, "dc": 2524, "Ġterrit": 2525, "jour": 2526, "isme": 2527, "pers": 2528, "usion": 2529, "ea": 2530, "Ġtaken": 2531, "Ġlip": 2532, "Ġtom": 2533, "iness": 2534, "Ġknees": 2535, "iles": 2536, "Ġsaying": 2537, "gl": 2538, "Ġcalm": 2539, "Her": 2540, "Ġwide": 2541, "ational": 2542, "Ġbas": 2543, "atur": 2544, "ision": 2545, "ĠAt": 2546, "Is": 2547, "Ġart": 2548, "Ġappro": 2549, "Ġtoday": 2550, "Ġceinture": 2551, "using": 2552, "ize": 2553, "ife": 2554, "oong": 2555, "Ġclim": 2556, "ids": 2557, "Ġhabit": 2558, "Ġgrabbed": 2559, "ÃĢ": 2560, "orrow": 2561, "cy": 2562, "gr": 2563, "Ġsqu": 2564, "fc": 2565, "ĠannÃ©es": 2566, "Ġgent": 2567, "Ġstraight": 2568, "Ġanymore": 2569, "Ġdisapp": 2570, "ĠÃ©tud": 2571, "Ġwatch": 2572, "Ġleur": 2573, "Or": 2574, "Ġexper": 2575, "Ġworry": 2576, "Ġappel": 2577, "ari": 2578, "Ġhy": 2579, "Ġdisc": 2580, "any": 2581, "Ġkisses": 2582, "oe": 2583, "iversitÃ©": 2584, "Ġgonna": 2585, "ively": 2586, "pose": 2587, "Ġsilence": 2588, "Ġ17": 2589, "ĠrÃ©alis": 2590, "Ġinte": 2591, "Ġsme": 2592, "uit": 2593, "Ġwhe": 2594, "ives": 2595, "mes": 2596, "Ġteas": 2597, "iol": 2598, "ena": 2599, "Ġguess": 2600, "aph": 2601, "Ġgod": 2602, "Ġclothes": 2603, "Ġstaring": 2604, "Ġwalk": 2605, "Ġcup": 2606, "finit": 2607, "Ġswall": 2608, "Ġchange": 2609, "Ġton": 2610, "ĠEven": 2611, "haps": 2612, "Ġplusieurs": 2613, "uild": 2614, "Ġlead": 2615, "yn": 2616, "rup": 2617, "Ġopp": 2618, "ĠJungkook": 2619, "ĠMaybe": 2620, "Ġjum": 2621, "aves": 2622, "form": 2623, "Ġhor": 2624, "Ġstared": 2625, "add": 2626, "Ġnear": 2627, "fb": 2628, "Ġshit": 2629, "orig": 2630, "Ġheat": 2631, "ĠJe": 2632, "Ġsqueez": 2633, "ĠIs": 2634, "ork": 2635, "Ġty": 2636, "Ġparent": 2637, "Ġprote": 2638, "enne": 2639, "Ġconvers": 2640, "117": 2641, "Ġoffic": 2642, "Ġcho": 2643, "ining": 2644, "Ġloved": 2645, "Ġsch": 2646, "Ġweek": 2647, "Ġbene": 2648, "ĠAz": 2649, "Ġbath": 2650, "friend": 2651, "Ġsett": 2652, "Fr": 2653, "Ġign": 2654, "Ġspoke": 2655, "ĠPh": 2656, "db": 2657, "Ġchair": 2658, "Ġpossible": 2659, "Dans": 2660, "iment": 2661, "Ġprot": 2662, "Ġjou": 2663, "Ġknowing": 2664, "ĠDream": 2665, "Ġpulls": 2666, "Ġris": 2667, "ken": 2668, "Ġeff": 2669, "Ġren": 2670, "Ġedge": 2671, "iÃ¨me": 2672, "Ġmonth": 2673, "iale": 2674, "Ġmod": 2675, "Ġcum": 2676, "omet": 2677, "arp": 2678, "Ġhell": 2679, "iff": 2680, "ande": 2681, "Ġnose": 2682, "Ġtone": 2683, "Ġraised": 2684, "Ġdraw": 2685, "ĠÃª": 2686, "Ġspot": 2687, "ls": 2688, "Ġsucc": 2689, "Allemagne": 2690, "ously": 2691, "cb": 2692, "Why": 2693, "Ġspread": 2694, "hui": 2695, "cking": 2696, "ative": 2697, "Ġgets": 2698, "cle": 2699, "Ġposition": 2700, "Ġblue": 2701, "Ġdecided": 2702, "onom": 2703, "ros": 2704, "toire": 2705, "Ġpeut": 2706, "Ġcouple": 2707, "Ġnorm": 2708, "ga": 2709, "ĠÃªtre": 2710, "cing": 2711, "heim": 2712, "ĠcomtÃ©": 2713, "ager": 2714, "Ġchin": 2715, "Ġdom": 2716, "Ġnoticed": 2717, "Ġothers": 2718, "Ġrom": 2719, "mbl": 2720, "Ġnon": 2721, "ora": 2722, "Ġcross": 2723, "ĠHen": 2724, "Ġcontrol": 2725, "Ġwrapped": 2726, "Ġfilled": 2727, "ĠWill": 2728, "Ġkit": 2729, "Ġsuppos": 2730, "Ġabove": 2731, "ĠdÃ©s": 2732, "Ġcant": 2733, "Ġju": 2734, "oun": 2735, "Ġpie": 2736, "Ġnearly": 2737, "ĠAm": 2738, "jourd": 2739, "Ġhuman": 2740, "Ġcomes": 2741, "ored": 2742, "Ġhall": 2743, "ares": 2744, "St": 2745, "Ã©ral": 2746, "ession": 2747, "Ġgentle": 2748, "ushing": 2749, "Ġfer": 2750, "Ġlap": 2751, "Ġforme": 2752, "ĠYour": 2753, "Ġwithin": 2754, "Ġforg": 2755, "ĠWh": 2756, "Ġseems": 2757, "alie": 2758, "Ġmut": 2759, "Ġreplied": 2760, "Ġ15": 2761, "Ġmond": 2762, "Ġhours": 2763, "ĠÂ»,": 2764, "ustr": 2765, "Ġtrust": 2766, "Ġeyeb": 2767, "Ġsimply": 2768, "Ġfood": 2769, "aling": 2770, "Ġtor": 2771, "ieu": 2772, "Ġtrouve": 2773, "Ġland": 2774, "Ġrelax": 2775, "velopp": 2776, "ĠrÃ©s": 2777, "reat": 2778, "Ġstep": 2779, "umbled": 2780, "Ġsmell": 2781, "empt": 2782, "anced": 2783, "ĠcrÃ©": 2784, "Ġsounds": 2785, "105": 2786, "ium": 2787, "Ġbuild": 2788, "Ġmass": 2789, "aim": 2790, "Ġpants": 2791, "Ġdick": 2792, "Ġclear": 2793, "Ġeyebrow": 2794, "origine": 2795, "Ġdead": 2796, "Ġheavy": 2797, "how": 2798, "Ġaff": 2799, "ĠamÃ©ricain": 2800, "Ġdistrict": 2801, "ĠdÃ©velopp": 2802, "ards": 2803, "ĠDo": 2804, "Ġsafe": 2805, "Ġbright": 2806, "orth": 2807, "ters": 2808, "ĠGod": 2809, "Ġposs": 2810, "ky": 2811, "Ġthrow": 2812, "De": 2813, "Ġchance": 2814, "ald": 2815, "Are": 2816, "onc": 2817, "Ġkitchen": 2818, "Ġhung": 2819, "Ġtit": 2820, "Ġsoci": 2821, "Ġcult": 2822, "Ġhistor": 2823, "Ġshock": 2824, "Ġkissing": 2825, "Ġnotamment": 2826, "ists": 2827, "Ġfigure": 2828, "ĠTaehyung": 2829, "Ġstret": 2830, "cher": 2831, "With": 2832, "My": 2833, "minist": 2834, "ĠrÃ©publique": 2835, "lles": 2836, "Ġbeside": 2837, "ĠÃ©v": 2838, "Ġpalm": 2839, "ror": 2840, "Ġfa": 2841, "Ġwalking": 2842, "ka": 2843, "Ġthick": 2844, "ĠSie": 2845, "Ġlearn": 2846, "rend": 2847, "Ġlit": 2848, "123": 2849, "tes": 2850, "Ġbreathing": 2851, "ges": 2852, "Ġconcern": 2853, "ĠLouis": 2854, "Ġfav": 2855, "Ġpant": 2856, "Ġphys": 2857, "Ġrolled": 2858, "Ġbag": 2859, "Ġblink": 2860, "iliar": 2861, "Ġgrin": 2862, "Ġears": 2863, "Ġpract": 2864, "Ġmention": 2865, "Ġmusic": 2866, "Ġselon": 2867, "ĠSc": 2868, "Ġ16": 2869, "Ġpartir": 2870, "Ġspace": 2871, "Ġdevient": 2872, "aced": 2873, "ĠNord": 2874, "ilt": 2875, "ĠSp": 2876, "apped": 2877, "lement": 2878, "Ġdest": 2879, "Ġcours": 2880, "ories": 2881, "Ġevent": 2882, "Ġgiven": 2883, "onne": 2884, "Ġcolle": 2885, "Ġparents": 2886, "Just": 2887, "phe": 2888, "Ġinform": 2889, "ente": 2890, "ĠQu": 2891, "ield": 2892, "Ġlower": 2893, "Ġfils": 2894, "Ġmoan": 2895, "Ġremind": 2896, "illy": 2897, "ologie": 2898, "ĠAfter": 2899, "Ġsurprised": 2900, "Ġtonight": 2901, "airs": 2902, "ries": 2903, "Ġimportant": 2904, "Ġavant": 2905, "Ġchar": 2906, "Ġfast": 2907, "upid": 2908, "rique": 2909, "Ġvillage": 2910, "unk": 2911, "Ġbeneath": 2912, "Ġtrue": 2913, "the": 2914, "Ġgrande": 2915, "ano": 2916, "Ġcanton": 2917, "Ġmonde": 2918, "Ġsupposed": 2919, "cially": 2920, "Ã©tÃ©": 2921, "Ġschool": 2922, "Ġupon": 2923, "ĠJimin": 2924, "ffe": 2925, "Ġrep": 2926, "Ġstat": 2927, "anis": 2928, "Ġconversation": 2929, "Ġquietly": 2930, "Ġserv": 2931, "Ġrepr": 2932, "Ġfollowed": 2933, "anna": 2934, "Ġforce": 2935, "ience": 2936, "Ġyes": 2937, "Ġinterest": 2938, "Ġcapit": 2939, "Ġsingle": 2940, "omb": 2941, "ĠNick": 2942, "Ġfrown": 2943, "Ġap": 2944, "ĠCar": 2945, "133": 2946, "oney": 2947, "ended": 2948, "103": 2949, "Ġutilis": 2950, "Ġgrip": 2951, "Ġnerv": 2952, "AprÃ¨s": 2953, "Ġworking": 2954, "Ġsurprise": 2955, "ĠÂ».": 2956, "Ġcorner": 2957, "ĠLan": 2958, "148": 2959, "Then": 2960, "iÃ¨res": 2961, "Ġwonder": 2962, "Ã©qu": 2963, "ination": 2964, "pecially": 2965, "Ġfab": 2966, "Ġdir": 2967, "ails": 2968, "Ġtrad": 2969, "imon": 2970, "Ġmis": 2971, "Ġcas": 2972, "ĠWhy": 2973, "Ġshaking": 2974, "Ġfear": 2975, "chn": 2976, "Ġrealized": 2977, "ograph": 2978, "sit": 2979, "ĠmÃ©t": 2980, "Ġweren": 2981, "Ġlang": 2982, "Ġempt": 2983, "cks": 2984, "arrass": 2985, "Ġir": 2986, "not": 2987, "gu": 2988, "Ġrespond": 2989, "ĠLuc": 2990, "Ġseat": 2991, "Ġpun": 2992, "ĠdÃ©part": 2993, "apt": 2994, "ĠTo": 2995, "Ġbreast": 2996, "ata": 2997, "On": 2998, "812": 2999, "Re": 3000, "Ġsmiles": 3001, "ĠcÃ´": 3002, "Ġcouch": 3003, "Ġblank": 3004, "Ġattempt": 3005, "ĠtrÃ¨s": 3006, "ĠFel": 3007, "Ġwid": 3008, "Ġancien": 3009, "Ġeasy": 3010, "elles": 3011, "Ġlik": 3012, "ipe": 3013, "rib": 3014, "ape": 3015, "oint": 3016, "ility": 3017, "ized": 3018, "ĠEvery": 3019, "viron": 3020, "riÃ¨re": 3021, "Ġhug": 3022, "lev": 3023, "Ġorig": 3024, "Ġobv": 3025, "ĠNow": 3026, "Ġhesit": 3027, "ori": 3028, "Ã¨me": 3029, "iddle": 3030, "Ġstupid": 3031, "Ġplaced": 3032, "Ġball": 3033, "rief": 3034, "Ġcra": 3035, "Ġbox": 3036, "Ġpill": 3037, "Ġconnu": 3038, "su": 3039, "Ġfirm": 3040, "Ġterritoire": 3041, "gn": 3042, "Ġpou": 3043, "Ġaccept": 3044, "Ġhonest": 3045, "ĠParis": 3046, "Ġstarts": 3047, "ma": 3048, "ana": 3049, "icks": 3050, "Ġsituation": 3051, "Ġjaw": 3052, "ĠCharlie": 3053, "itz": 3054, "Ġpressing": 3055, "la": 3056, "Ġprotect": 3057, "Ġhomme": 3058, "isted": 3059, "acks": 3060, "Ġhappen": 3061, "tede": 3062, "Ġneeds": 3063, "oongi": 3064, "Ġforehead": 3065, "449": 3066, "Ġcontact": 3067, "Ġpushing": 3068, "vered": 3069, "enn": 3070, "Ġsmiling": 3071, "Ġembarrass": 3072, "ucky": 3073, "Ġsept": 3074, "Ġpri": 3075, "ices": 3076, "Ġthinks": 3077, "uki": 3078, "Ġgest": 3079, "Ġjob": 3080, "Ġtired": 3081, "ĠFl": 3082, "ipping": 3083, "Ġdiv": 3084, "ĠDon": 3085, "iny": 3086, "Ġ2": 3087, "Ġliving": 3088, "off": 3089, "Ġtomorrow": 3090, "Ġdirection": 3091, "Ġhang": 3092, "hip": 3093, "Ġcro": 3094, "ball": 3095, "Ġbecome": 3096, "ĠPl": 3097, "Ġtip": 3098, "ands": 3099, "inned": 3100, "Ġline": 3101, "Ġeat": 3102, "Ġyell": 3103, "pha": 3104, "128": 3105, "Ġfois": 3106, "Ã©ration": 3107, "issance": 3108, "rowley": 3109, "Ġprop": 3110, "Ġself": 3111, "Ġreach": 3112, "Ġpersonn": 3113, "Ġfem": 3114, "oring": 3115, "uu": 3116, "Ġnature": 3117, "Fuck": 3118, "aled": 3119, "Ġweak": 3120, "ĠJames": 3121, "Ġdate": 3122, "Ġmot": 3123, "Ã¨de": 3124, "Ġve": 3125, "Ġweight": 3126, "Ġcond": 3127, "Ġloo": 3128, "Ġlate": 3129, "Ġgigg": 3130, "ĠWei": 3131, "aven": 3132, "inner": 3133, "ras": 3134, "Ġpap": 3135, "132": 3136, "Ġfamiliar": 3137, "Ġrout": 3138, "iling": 3139, "Ġmanaged": 3140, "Ġguy": 3141, "Ġ...": 3142, "Ġchef": 3143, "Ġconstru": 3144, "Ġdern": 3145, "aya": 3146, "Ġharder": 3147, "Ġmurm": 3148, "finitely": 3149, "Ġmir": 3150, "Ġresponse": 3151, "Ġadminist": 3152, "Ġfully": 3153, "Ġavoir": 3154, "par": 3155, "atrice": 3156, "itut": 3157, "Ġyear": 3158, "uct": 3159, "Ġleaning": 3160, "ĠHob": 3161, "bur": 3162, "riel": 3163, "Hey": 3164, "nement": 3165, "vie": 3166, "After": 3167, "Ġcover": 3168, "Ã¨te": 3169, "130": 3170, "selves": 3171, "Ġobs": 3172, "oque": 3173, "Ġsuiv": 3174, "ĠMinho": 3175, "Ġcontr": 3176, "acing": 3177, "iant": 3178, "mble": 3179, "Ġnods": 3180, "Ġmagic": 3181, "Ġyours": 3182, "Ġclearly": 3183, "amm": 3184, "Ġviol": 3185, "Ġgenre": 3186, "115": 3187, "aff": 3188, "Ġhers": 3189, "Ġpeu": 3190, "user": 3191, "Ġstuff": 3192, "Ġduring": 3193, "Ġmill": 3194, "Ġliked": 3195, "Ġpopulaire": 3196, "Ġtend": 3197, "Ġworried": 3198, "Ġanyway": 3199, "rif": 3200, "Ġfre": 3201, "erve": 3202, "bo": 3203, "Ġsister": 3204, "aud": 3205, "âĢĶ\"": 3206, "Ġstepped": 3207, "Your": 3208, "Ġfeelings": 3209, "Ġsuper": 3210, "ĠHy": 3211, "ĠÃ©criv": 3212, "Ġtaste": 3213, "itions": 3214, "Ġrelations": 3215, "Am": 3216, "Ġcontre": 3217, "Ġfix": 3218, "wards": 3219, "ĠNew": 3220, "Ġbien": 3221, "Ġphil": 3222, "ĠUn": 3223, "oudan": 3224, "Ġanim": 3225, "ĠChrist": 3226, "Ġagre": 3227, "Ã¨res": 3228, "ĠHenry": 3229, "Ġpriv": 3230, "ery": 3231, "ionn": 3232, "Ġpan": 3233, "Ġ1": 3234, "Ġpush": 3235, "Ġsem": 3236, "ama": 3237, "ĠKe": 3238, "Ġsharp": 3239, "ĠprÃ©": 3240, "Ã¤": 3241, "band": 3242, "Ġfour": 3243, "ctor": 3244, "ĠCon": 3245, "Ġmiddle": 3246, "ĠmÃ©d": 3247, "Ã©rÃ©": 3248, "mb": 3249, "ĠGeorge": 3250, "Ġvol": 3251, "ĠJohnny": 3252, "Ġwhim": 3253, "Ġgoes": 3254, "Ġchuckled": 3255, "abl": 3256, "ðĿ": 3257, "Ã³": 3258, "ressed": 3259, "Ġid": 3260, "Ġarri": 3261, "Ġarch": 3262, "Ġclen": 3263, "yle": 3264, "ĠRon": 3265, "Ġriv": 3266, "ancy": 3267, "uly": 3268, "Ġknown": 3269, "Ġdespite": 3270, "Ġsweat": 3271, "Ġmun": 3272, "ĠdÃ©but": 3273, "Ġtour": 3274, "blem": 3275, "Ġshot": 3276, "Ġkeeping": 3277, "Ġcarefully": 3278, "Ġearl": 3279, "arb": 3280, "ĠDan": 3281, "anks": 3282, "Ġstrugg": 3283, "reen": 3284, "116": 3285, "Ġmondiale": 3286, "Ġgroup": 3287, "mens": 3288, "omp": 3289, "ĠdÃ©partement": 3290, "Ġcase": 3291, "Ġenf": 3292, "Ġactiv": 3293, "ĠJean": 3294, "ites": 3295, "Ġfalling": 3296, "ety": 3297, "Ġclean": 3298, "atique": 3299, "imm": 3300, "Ġeasily": 3301, "ĠZh": 3302, "itive": 3303, "Ġcal": 3304, "ander": 3305, "Ġpromise": 3306, "inct": 3307, "ĠJi": 3308, "Ġthumb": 3309, "Ġapolog": 3310, "omen": 3311, "Ġsilent": 3312, "Ġcomb": 3313, "Ġempty": 3314, "iam": 3315, "Now": 3316, "ĠÃ©l": 3317, "Ġcatch": 3318, "Ġmembre": 3319, "Ġbrain": 3320, "Ġmine": 3321, "acked": 3322, "Ġbedroom": 3323, "uzz": 3324, "155": 3325, "146": 3326, "Ġsteps": 3327, "tern": 3328, "itted": 3329, "Ġstarting": 3330, "sp": 3331, "ĠNam": 3332, "ĠfranÃ§aise": 3333, "ĠprÃ¨s": 3334, "Ġsuite": 3335, "Ġspent": 3336, "Ġgouver": 3337, "Ġhaven": 3338, "Ġpassed": 3339, "Ġorgasm": 3340, "vin": 3341, "Ġmonths": 3342, "ura": 3343, "ĠEr": 3344, "Ġlat": 3345, "Ġcoun": 3346, "aps": 3347, "cul": 3348, "oul": 3349, "156": 3350, "Ġwindow": 3351, "cles": 3352, "Ġknock": 3353, "oro": 3354, "tering": 3355, "Ġsimple": 3356, "Ġincl": 3357, "----": 3358, "ey": 3359, "Ġscent": 3360, "100": 3361, "Ġbathroom": 3362, "Ġdiffic": 3363, "wood": 3364, "ael": 3365, "Ġdesk": 3366, "ĠWil": 3367, "Ġital": 3368, "Ġautrich": 3369, "rem": 3370, "ĠSir": 3371, "Ġworked": 3372, "uku": 3373, "Ġwanting": 3374, "Ġdef": 3375, "Ġthank": 3376, "ump": 3377, "veral": 3378, "Ġmoments": 3379, "Okay": 3380, "Ġreturned": 3381, "ĠAngel": 3382, "itude": 3383, "Ġsoit": 3384, "ĠStede": 3385, "ĠPaul": 3386, "1049": 3387, "Ġlets": 3388, "ĠrÃ©f": 3389, "Ġsus": 3390, "igne": 3391, "Ġdesire": 3392, "Ġwearing": 3393, "ada": 3394, "Ġsad": 3395, "Ġproblem": 3396, "Ġtelling": 3397, "Ġsecret": 3398, "tres": 3399, "Ġtries": 3400, "At": 3401, "ring": 3402, "Ġsmo": 3403, "Ġtext": 3404, "orf": 3405, "Ġbell": 3406, "Ġdefinitely": 3407, "cious": 3408, "Ġfinished": 3409, "ĠPer": 3410, "ĠdiffÃ©": 3411, "aise": 3412, "isf": 3413, "ift": 3414, "Ġ%": 3415, "Ġpussy": 3416, "his": 3417, "Ġling": 3418, "Ġadministrat": 3419, "Ġdess": 3420, "issement": 3421, "Ġtruly": 3422, "Ġdamn": 3423, "universitÃ©": 3424, "II": 3425, "Ġdoub": 3426, "Ġexpected": 3427, "Ġlive": 3428, "Ġbottom": 3429, "Ġver": 3430, "Ġdemon": 3431, "cho": 3432, "Ġprep": 3433, "amed": 3434, "usse": 3435, "Ġbecame": 3436, "Ġdie": 3437, "ĠYoongi": 3438, "Ġmoans": 3439, "urope": 3440, "Åĵu": 3441, "rill": 3442, "ĠOn": 3443, "Ġasking": 3444, "ĠpÃ¨re": 3445, "Good": 3446, "ĠCan": 3447, "Ġdesc": 3448, "Ġpendant": 3449, "Ġtens": 3450, "Ġcontinue": 3451, "Ġnotice": 3452, "Ġsix": 3453, "Ġwalls": 3454, "Ġwarmth": 3455, "ding": 3456, "Ġcovered": 3457, "Ġfabric": 3458, "esh": 3459, "Ġcast": 3460, "Ġpink": 3461, "Ġtruth": 3462, "reg": 3463, "Ġplaying": 3464, "top": 3465, "ĠOne": 3466, "Ġnipp": 3467, "istes": 3468, "Ġhus": 3469, "Ġglad": 3470, "Ġbrief": 3471, "Ġlifted": 3472, "lande": 3473, "Ġsoul": 3474, "ams": 3475, "ĠSoudan": 3476, "Ġshower": 3477, "Ġoften": 3478, "Thank": 3479, "Ġorigin": 3480, "Ġgold": 3481, "153": 3482, "raid": 3483, "Ġdeath": 3484, "Ġgotten": 3485, "Ġsle": 3486, "Ġwin": 3487, "Ġdropped": 3488, "isÃ©e": 3489, "ĠDean": 3490, "Ġseconds": 3491, "Ġfit": 3492, "Ġdinner": 3493, "cont": 3494, "erg": 3495, "Ġproper": 3496, "iraph": 3497, "rer": 3498, "ĠTe": 3499, "Ġseveral": 3500, "Ne": 3501, "Ġsomehow": 3502, "Please": 3503, "Ġeng": 3504, "Ġhide": 3505, "Ġtil": 3506, "Ġstri": 3507, "Ġmunicip": 3508, "ĠespÃ¨ce": 3509, "Ġspl": 3510, "no": 3511, "ĠVal": 3512, "Ġshouldn": 3513, "iraphale": 3514, "Ste": 3515, "Ġcapitale": 3516, "mi": 3517, "Ġquat": 3518, "Ġmoaned": 3519, "Ġfro": 3520, "Ġautres": 3521, "ffee": 3522, "Ġcount": 3523, "Ġworse": 3524, "illes": 3525, "Ġannoy": 3526, "Ġearlier": 3527, "bed": 3528, "ino": 3529, "Ġfavor": 3530, "fer": 3531, "Ġrelief": 3532, "asion": 3533, "Ġdig": 3534, ".âĢĻ": 3535, "Ġhur": 3536, "Ġnormal": 3537, "Ġtot": 3538, "Ġasleep": 3539, "Ġphot": 3540, "Ġtightly": 3541, "Ġbuilding": 3542, "Ġwish": 3543, "ÃŃ": 3544, "mann": 3545, "ĠsiÃ¨": 3546, "Ġgreen": 3547, "entr": 3548, "helm": 3549, "Ġshout": 3550, "Ãªtre": 3551, "ancing": 3552, "Ġcy": 3553, "cou": 3554, "Ġmeeting": 3555, "Ġfocus": 3556, "Ġrough": 3557, "Ġpublic": 3558, "light": 3559, "though": 3560, "ĠPeter": 3561, "riedrich": 3562, "Ġchanged": 3563, "Ġdeal": 3564, "omething": 3565, "Ġallowed": 3566, "uri": 3567, "Ġpicked": 3568, "Cl": 3569, "Ġesc": 3570, "150": 3571, "aces": 3572, "Ġstrange": 3573, "Ġpopulation": 3574, "za": 3575, "Ġencore": 3576, "Ġgives": 3577, "Ġev": 3578, "Ġweird": 3579, "Ġcamp": 3580, "Ġcomfortable": 3581, "Ġdeven": 3582, "Ġpay": 3583, "Ġdanger": 3584, "Ġbase": 3585, "gne": 3586, "ologne": 3587, "Ġshad": 3588, "ĠGhost": 3589, "Ġrap": 3590, "Let": 3591, "For": 3592, "ĠChris": 3593, "llement": 3594, "go": 3595, "ĠsituÃ©": 3596, "Ġrubbing": 3597, "Ġdelic": 3598, "Ġnum": 3599, "Ġwood": 3600, "ica": 3601, "ffect": 3602, "urant": 3603, "voir": 3604, "ĠdÃ©fin": 3605, "Ġreve": 3606, "ĠBen": 3607, "Ġconfused": 3608, "icien": 3609, "Ġnomm": 3610, "ities": 3611, "Ġgroupe": 3612, "opÃ©": 3613, "ission": 3614, "ĠJack": 3615, "Ġweeks": 3616, "arc": 3617, "chi": 3618, "Ġforget": 3619, "ĠÃ©conom": 3620, "ĠdÃ©m": 3621, "ĠCrowley": 3622, "ĠGuerre": 3623, "Ġcoffee": 3624, "Ġespecially": 3625, "iy": 3626, "Ġcel": 3627, "Ġmeans": 3628, "Ġring": 3629, "ĠSiemens": 3630, "Ġpict": 3631, "869": 3632, "ogn": 3633, "comfort": 3634, "Ġgroaned": 3635, "Ġglanced": 3636, "era": 3637, "Ġrepe": 3638, "Ġguys": 3639, "unch": 3640, "Ġbroken": 3641, "Ġones": 3642, "Ġusing": 3643, "Ġconne": 3644, "Ġthemselves": 3645, "Ġslid": 3646, "Ġhole": 3647, "Ġwhisper": 3648, "Ġaren": 3649, "Ġbroke": 3650, "Ġhuff": 3651, "Ġdistance": 3652, "usted": 3653, "Ġsyst": 3654, "ĠMer": 3655, "790": 3656, "ĠLike": 3657, "autres": 3658, "Ġ3": 3659, "idence": 3660, "Ġavo": 3661, "ĠGo": 3662, "Ġdeeper": 3663, "Can": 3664, "Ġputting": 3665, "ules": 3666, "Ġquestions": 3667, "Ġvan": 3668, "Ġnaked": 3669, "Ġfold": 3670, "ĠdÃ©couver": 3671, "Ġmed": 3672, "Ġeffect": 3673, "Ġsometimes": 3674, "ength": 3675, "ĠBel": 3676, "Ġcool": 3677, "Of": 3678, "Ġrequ": 3679, "Ġsugg": 3680, "ĠgÃ©": 3681, "oles": 3682, "bles": 3683, "aines": 3684, "ables": 3685, "ĠÃī": 3686, "Ġsink": 3687, "Ġces": 3688, "ument": 3689, "Ġalright": 3690, "ital": 3691, "ĠCal": 3692, "bers": 3693, "bered": 3694, "Did": 3695, "rous": 3696, "mega": 3697, "Ġdisappe": 3698, "Ġclit": 3699, "Ġusual": 3700, "Ah": 3701, "der": 3702, "ĠEn": 3703, "ige": 3704, "ption": 3705, "Ġgame": 3706, "ĠHam": 3707, "bres": 3708, "Ġoffice": 3709, "Ġblonde": 3710, "Ġexpos": 3711, "ashed": 3712, "ĠRh": 3713, "ao": 3714, "Ġill": 3715, "Ġnervous": 3716, "Ġanger": 3717, "Ġsatisf": 3718, "Ġleans": 3719, "Ã»": 3720, "Ġbal": 3721, "arles": 3722, "Ġener": 3723, "ĠMiss": 3724, "Ġcha": 3725, "ationale": 3726, "Ġmaj": 3727, "Ġtant": 3728, "Ġbeat": 3729, "Ġcapt": 3730, "ussie": 3731, "Ġforced": 3732, "Ġentr": 3733, "arth": 3734, "Ġtechn": 3735, "itaire": 3736, "rect": 3737, "Ġwar": 3738, "Ġkid": 3739, "Ġacteur": 3740, "Ġeffort": 3741, "arry": 3742, "Ġtouched": 3743, "ague": 3744, "hered": 3745, "Ġreaching": 3746, "ago": 3747, "Ġgrab": 3748, "ĠreprÃ©s": 3749, "Ġscared": 3750, "Ġaware": 3751, "itu": 3752, "Ġgras": 3753, "ĠMr": 3754, "ondered": 3755, "ashing": 3756, "Ġlightly": 3757, "Ġangry": 3758, "eau": 3759, "Ġyeah": 3760, "ĠVienne": 3761, "Ġthreat": 3762, "Ġnouvelle": 3763, "Ġarr": 3764, "Ġrub": 3765, "like": 3766, "Ã¯n": 3767, "Ġbu": 3768, "Ġforgot": 3769, "Ġrad": 3770, "Ġbreasts": 3771, "Ãªte": 3772, "Ġnombreux": 3773, "Ġwound": 3774, "ĠcarriÃ¨re": 3775, "Ġolder": 3776, "ĠLet": 3777, "Ġafraid": 3778, "erne": 3779, "Ġeur": 3780, "Ġrelationship": 3781, "kward": 3782, "Ġess": 3783, "Ġapproac": 3784, "Joh": 3785, "Ġtrembl": 3786, "anie": 3787, "son": 3788, "ĠGer": 3789, "Ġchamp": 3790, "Ġappre": 3791, "joon": 3792, "Ġlength": 3793, "118": 3794, "Ġfucked": 3795, "ishing": 3796, "Ġmain": 3797, "Ġfrustr": 3798, "iled": 3799, "ĠTr": 3800, "otions": 3801, "Ġusually": 3802, "Ġsuit": 3803, "ĠÃ©crit": 3804, "Ġdesperate": 3805, "wig": 3806, "ahre": 3807, "Ġsour": 3808, "olutely": 3809, "Ġterm": 3810, "Ġsounded": 3811, "Ġadded": 3812, "ĠRub": 3813, "Ġfair": 3814, "Ġquel": 3815, "Maybe": 3816, "Ġsal": 3817, "Ġten": 3818, "Ġexcited": 3819, "xy": 3820, "Ġpick": 3821, "Ġnoise": 3822, "Ġawkward": 3823, "Ġculture": 3824, "Ġsouvent": 3825, "Ġmal": 3826, "Ġgrinned": 3827, "Ġprocess": 3828, "Ġmemory": 3829, "Ġenergy": 3830, "Ġpair": 3831, "face": 3832, "Ġfollow": 3833, "ics": 3834, "Ġpointed": 3835, "Ġapartment": 3836, "Ġcompte": 3837, "Ġgirls": 3838, "ahreÃ¯n": 3839, "ym": 3840, "lessly": 3841, "398": 3842, "wered": 3843, "rÃ¨s": 3844, "Ġrid": 3845, "81230": 3846, "Ġtow": 3847, "Ġperhaps": 3848, "Ġbrit": 3849, "Ġple": 3850, "ĠÃ©crivain": 3851, "Ġsees": 3852, "Ġta": 3853, "ĠAnt": 3854, "Ġpiece": 3855, "val": 3856, "Ġhour": 3857, "itect": 3858, "Ġitself": 3859, "osp": 3860, "Ġflesh": 3861, "Ġsans": 3862, "Ġenviron": 3863, "Ġboyfriend": 3864, "Ġrecogn": 3865, "Ġminute": 3866, "ologue": 3867, "Ġtent": 3868, "ĠPhil": 3869, "ĠSud": 3870, "Ġwand": 3871, "Ġunc": 3872, "Ġguerre": 3873, "Ġimm": 3874, "Ġbritann": 3875, "Ġwhispers": 3876, "pes": 3877, "Ġnatur": 3878, "come": 3879, "now": 3880, "Ġadv": 3881, "ictor": 3882, "Ġsuggest": 3883, "147": 3884, "cent": 3885, "Ġtrav": 3886, "coming": 3887, "ĠKarl": 3888, "vely": 3889, "stein": 3890, "Ġreleas": 3891, "uls": 3892, "Ġdra": 3893, "ico": 3894, "ĠMor": 3895, "Ġdry": 3896, "cteur": 3897, "Ġbite": 3898, "ĠMax": 3899, "Ġcommer": 3900, "ugs": 3901, "ĠAllemagne": 3902, "hard": 3903, "uffy": 3904, "ĠSec": 3905, "irm": 3906, "ĠOh": 3907, "Ġhelped": 3908, "Ġsick": 3909, "Ġpock": 3910, "ĠtÃ©l": 3911, "ĠReg": 3912, "ĠMun": 3913, "Ġalpha": 3914, "Ġfort": 3915, "ĠFelix": 3916, "Ġbod": 3917, "Ã©ment": 3918, "Ġslipped": 3919, "sur": 3920, "atures": 3921, "Ġentirely": 3922, "Par": 3923, "Ġble": 3924, "Ġsighs": 3925, "Ġwild": 3926, "Ġimpos": 3927, "Ġsmirk": 3928, "uke": 3929, "ĠIzuku": 3930, "ita": 3931, "Ġflat": 3932, "ior": 3933, "Ġphilos": 3934, "ades": 3935, "Ġserious": 3936, "Ġgrowing": 3937, "Ġquart": 3938, "ords": 3939, "Ġsensation": 3940, "Ġgasped": 3941, "Ã´le": 3942, "Ġfaster": 3943, "ĠSimon": 3944, "rodu": 3945, "127": 3946, "ios": 3947, "Â«": 3948, "ĠDid": 3949, "Ġhowever": 3950, "ielle": 3951, "oki": 3952, "eps": 3953, "Ġangl": 3954, "Ġhiss": 3955, "Ġnombreuses": 3956, "Ġterme": 3957, "Ġcausing": 3958, "Ġcelle": 3959, "Ġround": 3960, "Ġpost": 3961, "Ġpal": 3962, "Ġsupport": 3963, "erie": 3964, "Ġamaz": 3965, "erman": 3966, "ami": 3967, "Ġmoves": 3968, "ĠHan": 3969, "Ġopening": 3970, "okjin": 3971, "ĠGl": 3972, "119": 3973, "Ġincred": 3974, "ĠWang": 3975, "Ġwondered": 3976, "Ġ10": 3977, "ĠlÃ©g": 3978, "Ġer": 3979, "ĠnaÃ®t": 3980, "Wh": 3981, "Ad": 3982, "Ġpossib": 3983, "Ġpen": 3984, "Ġpace": 3985, "Ġinterrup": 3986, "Ġcheck": 3987, "Ġhabitants": 3988, "Ġlaughing": 3989, "Ġlaid": 3990, "Ġfon": 3991, "ĠRussie": 3992, "ta": 3993, "ĠCol": 3994, "Ġcrow": 3995, "rible": 3996, "Ġremembered": 3997, "Ġmist": 3998, "Ã®le": 3999, "Ġshrugged": 4000, "what": 4001, "Ġsomewhere": 4002, "Ġview": 4003, "of": 4004, "set": 4005, "iction": 4006, "oci": 4007, "Ġactrice": 4008, "uge": 4009, "Ġjourn": 4010, "ĠPe": 4011, "ĠJon": 4012, "Ġwake": 4013, "Ġprotest": 4014, "Ġhusband": 4015, "Ġmoins": 4016, "ĠAva": 4017, "Ġplaces": 4018, "stead": 4019, "Ã©mat": 4020, "Ġsci": 4021, "Ġstreng": 4022, "eless": 4023, "140": 4024, "ĠSome": 4025, "ĠeuropÃ©": 4026, "oise": 4027, "125": 4028, "Ġmissed": 4029, "Ġuns": 4030, "Ġrespect": 4031, "rid": 4032, "Ġlieu": 4033, "ooking": 4034, "Ġtemps": 4035, "itement": 4036, "Ġwarn": 4037, "Ġorder": 4038, "Ġnouveau": 4039, "esp": 4040, "ney": 4041, "sible": 4042, "Ġpresent": 4043, "Ġjour": 4044, "eld": 4045, "Ġgrec": 4046, "Ġtouching": 4047, "iter": 4048, "jet": 4049, "ĠWolf": 4050, "Ġmuscles": 4051, "418": 4052, "833": 4053, "Ġlose": 4054, "ĠGrand": 4055, "Ġhate": 4056, "Ġfail": 4057, "key": 4058, "ĠMont": 4059, "Ġden": 4060, "Ġmad": 4061, "acc": 4062, "rier": 4063, "Ġsky": 4064, "Ġnar": 4065, "aded": 4066, "Ġearly": 4067, "haÃ¯": 4068, "Ġlaughs": 4069, "Ġanswered": 4070, "Ġcounter": 4071, "Ġevening": 4072, "Ġdifficult": 4073, "Ġwip": 4074, "Ġfinding": 4075, "Ã©publique": 4076, "Ġoppos": 4077, "bel": 4078, "Ġnive": 4079, "Ġwaited": 4080, "bi": 4081, "Ġgouvernement": 4082, "ĠAziraphale": 4083, "anche": 4084, "Ġsuff": 4085, "Ġtype": 4086, "quel": 4087, "Ġsurround": 4088, "Ġ12": 4089, "iting": 4090, "Ġsend": 4091, "Ġdit": 4092, "Ġspend": 4093, "Ġappart": 4094, "Ġreaches": 4095, "Ġwife": 4096, "Come": 4097, "ube": 4098, "Ġaujourd": 4099, "Ġcommence": 4100, "het": 4101, "resh": 4102, "aume": 4103, "Ġburning": 4104, "Ġbeginning": 4105, "Ġcrying": 4106, "acted": 4107, "Ġadmit": 4108, "mpire": 4109, "iot": 4110, "atsuki": 4111, "Ġresting": 4112, "Ġbra": 4113, "445": 4114, "Ġsi": 4115, "Une": 4116, "ĠIzzy": 4117, "Ġlying": 4118, "Ġpath": 4119, "Ġtest": 4120, "Ġalive": 4121, "Ġdeeply": 4122, "Ã¢ge": 4123, "uf": 4124, "Ġeager": 4125, "Ġyounger": 4126, "Ġgrew": 4127, "ĠRem": 4128, "Ġstory": 4129, "enty": 4130, "417": 4131, "ĠmÃ©": 4132, "inst": 4133, "hh": 4134, "Ġinten": 4135, "Ġtard": 4136, "ilar": 4137, "Ġprou": 4138, "Ġteasing": 4139, "ĠChan": 4140, "Ġunable": 4141, "apon": 4142, "ĠSar": 4143, "ĠdiffÃ©rent": 4144, "ading": 4145, "\"),": 4146, "win": 4147, "Ġya": 4148, "ula": 4149, "rait": 4150, "Ġbottle": 4151, "Ġheal": 4152, "Ġpressure": 4153, "ville": 4154, "Ġunf": 4155, "aceae": 4156, "ĠSirius": 4157, "ĠriviÃ¨re": 4158, "chÃ©": 4159, "Ã©rique": 4160, "Ġcertainly": 4161, "ĠLily": 4162, "icago": 4163, "aly": 4164, "Ġroman": 4165, "Ġrece": 4166, "astian": 4167, "ples": 4168, "Ġended": 4169, "Ġeventually": 4170, "499": 4171, "asy": 4172, "oung": 4173, "Ġthrew": 4174, "bach": 4175, "443": 4176, "145": 4177, "ĠÃ©tant": 4178, "Ġpresence": 4179, "Est": 4180, "Ġtall": 4181, "ĠPat": 4182, "ĠPro": 4183, "ĠMing": 4184, "fered": 4185, "Ġwrist": 4186, "Ġbodies": 4187, "448": 4188, "ĠJis": 4189, "uisse": 4190, "oved": 4191, "Ġcommand": 4192, "ĠreprÃ©sent": 4193, "Ġappreci": 4194, "bes": 4195, "Ġpin": 4196, "ĠYork": 4197, "Ġband": 4198, "ĠWangji": 4199, "Ġstrength": 4200, "ĠAst": 4201, "Ġtiny": 4202, "yr": 4203, "!!": 4204, "unjin": 4205, "113": 4206, "Ġfootball": 4207, "umi": 4208, "riche": 4209, "Ġarous": 4210, "utt": 4211, "Ġstare": 4212, "ĠThaÃ¯": 4213, "ĠThaÃ¯lande": 4214, "Ġcause": 4215, "Ġciv": 4216, "eling": 4217, "let": 4218, "Ã¨se": 4219, "ebastian": 4220, "Ġoverw": 4221, "Pl": 4222, "body": 4223, "Ġinn": 4224, "Ġdemand": 4225, "Ġclo": 4226, "Ã¨ve": 4227, "fection": 4228, "Ġnor": 4229, "Ġcollect": 4230, "Sel": 4231, "Ġparty": 4232, "442": 4233, "Ã©tique": 4234, "ifer": 4235, "ĠMann": 4236, "Ġpeint": 4237, "416": 4238, "Ġplate": 4239, "Ġexplained": 4240, "Ġstuck": 4241, "atoru": 4242, "Ġfinish": 4243, "Ã©rence": 4244, "idden": 4245, "ĠspÃ©": 4246, "ĠcÃ©l": 4247, "Ġemotion": 4248, "utriche": 4249, "Ġpaper": 4250, "Ġ),": 4251, "Ġchoice": 4252, "iÃ©e": 4253, "446": 4254, "ĠSun": 4255, "Ġinh": 4256, "ĠfÃ©d": 4257, "ichael": 4258, "ira": 4259, "teur": 4260, "Ġstation": 4261, "Ġquatre": 4262, "umm": 4263, "lyn": 4264, "fois": 4265, "for": 4266, "Ġdoubt": 4267, "jo": 4268, "Ġscr": 4269, "ashi": 4270, "Ġexist": 4271, "Ġvision": 4272, "Ġplann": 4273, "yond": 4274, "Ġdrop": 4275, "Ã¢t": 4276, "Ġhappening": 4277, "ifs": 4278, "Ġexha": 4279, "Ġfuture": 4280, "Ġoffered": 4281, "Ġrapp": 4282, "402": 4283, "Ġintim": 4284, "Ġexplain": 4285, "ĠNamjoon": 4286, "aging": 4287, "ĠLond": 4288, "iteur": 4289, "uuya": 4290, "Ġhandle": 4291, "420": 4292, "Ġexcept": 4293, "Ġautrichien": 4294, "Ġwanna": 4295, "ĠDes": 4296, "ran": 4297, "Ã¢te": 4298, "Ġshifted": 4299, "ray": 4300, "Ġpot": 4301, "Lors": 4302, "ĠWell": 4303, "Ġsmooth": 4304, "Ġcinq": 4305, "Ġstayed": 4306, "Ġburst": 4307, "143": 4308, "ierre": 4309, "eurs": 4310, "Ġhoping": 4311, "Ġbi": 4312, "Ġpup": 4313, "Ġswallowed": 4314, "Ġoccup": 4315, "Ġi": 4316, "ĠSug": 4317, "Ġbegin": 4318, "histoire": 4319, "Ġment": 4320, "Ġmorte": 4321, "Ġextra": 4322, "Ġmemories": 4323, "inrich": 4324, "Elle": 4325, "Ġforever": 4326, "Ġpassion": 4327, "Ġodd": 4328, "106": 4329, "Ġtous": 4330, "Ġcelui": 4331, "Ġsnapped": 4332, "Ġdance": 4333, "cape": 4334, "Ġsong": 4335, "ĠJeong": 4336, "149": 4337, "Ce": 4338, "Ġclub": 4339, "Mar": 4340, "Ġpractically": 4341, "Ġcarry": 4342, "Ġabsolutely": 4343, "Ġnarrow": 4344, "Ġlocked": 4345, "Ġdernier": 4346, "ja": 4347, "Ġanx": 4348, "Ġecho": 4349, "Ġrelig": 4350, "Ġsleeping": 4351, "just": 4352, "Ġworth": 4353, "tt": 4354, "zen": 4355, "109": 4356, "Ġchildren": 4357, "bum": 4358, "Ġsteady": 4359, "uve": 4360, "irth": 4361, "Ġcity": 4362, "413": 4363, "ĠÃ©lect": 4364, "Ġspir": 4365, "Ã©dÃ©": 4366, "Ġparmi": 4367, "ester": 4368, "Ġligne": 4369, "Ġminist": 4370, "erves": 4371, "Ġgrabbing": 4372, "ĠBo": 4373, "Ġsits": 4374, "Ġ&": 4375, "Ġshakes": 4376, "Ġfollowing": 4377, "ĠCor": 4378, "Ġrubbed": 4379, "Ġpaused": 4380, "Ġimagine": 4381, "Ġbelly": 4382, "Ġpeace": 4383, "Ġjer": 4384, "owers": 4385, "Ġsurface": 4386, "iquement": 4387, "Ġbusy": 4388, "Ġ#": 4389, "Ġcath": 4390, "Ġpound": 4391, "Ġcurrent": 4392, "ĠTim": 4393, "Ġfinds": 4394, "Ġexcl": 4395, "Ġaside": 4396, "Ġmix": 4397, "Ġrare": 4398, "Ġfighting": 4399, "Ġmirror": 4400, "ĠthÃ©or": 4401, "Ġshared": 4402, "Ġguard": 4403, "Ġentrance": 4404, "Ġnav": 4405, "ivement": 4406, "ĠMunich": 4407, "roll": 4408, "Ġtwit": 4409, "arsh": 4410, "rim": 4411, "roy": 4412, "Ġsave": 4413, "Åį": 4414, "Ġ14": 4415, "ication": 4416, "Ġuncomfort": 4417, "istique": 4418, "Ġsliding": 4419, "oit": 4420, "vres": 4421, "fl": 4422, "Ġcute": 4423, "Ġlover": 4424, "Ġsettled": 4425, "Ġrose": 4426, "Ġrend": 4427, "Ġcried": 4428, "648": 4429, "neath": 4430, "Ġunderneath": 4431, "Ã¨nes": 4432, "Ġtuck": 4433, "177": 4434, "Ġobvious": 4435, "young": 4436, "ĠBecause": 4437, "ĠprÃ©sident": 4438, "por": 4439, "Ġholds": 4440, "nent": 4441, "Ġslam": 4442, "Ġarg": 4443, "Ġtradition": 4444, "Ġfive": 4445, "esseur": 4446, "Ġlos": 4447, "Ġfresh": 4448, "itten": 4449, "ĠdÃ©p": 4450, "Ġarea": 4451, "Alex": 4452, "arently": 4453, "Ġemotions": 4454, "never": 4455, "Ġleaves": 4456, "Ġbreathe": 4457, "artin": 4458, "El": 4459, "Jean": 4460, "ĠÃ©tudes": 4461, "Ġgasp": 4462, "Ġproud": 4463, "ĠWas": 4464, "ĠPart": 4465, "Ġrealize": 4466, "ĠRÃ©publique": 4467, "ĠRob": 4468, "Ġkids": 4469, "thur": 4470, "Ġcrit": 4471, "Ġcrossed": 4472, "440": 4473, "Ġfinal": 4474, "Ġspill": 4475, "fast": 4476, "Ġstate": 4477, "ĠmunicipalitÃ©": 4478, "ĠAsh": 4479, "447": 4480, "Ġtea": 4481, "1310": 4482, "acking": 4483, "Ġways": 4484, "Ġaud": 4485, "Ġlisten": 4486, "Ġbeyond": 4487, "aped": 4488, "Ġbow": 4489, "Ġtoss": 4490, "azai": 4491, "Ġexperience": 4492, "dam": 4493, "ki": 4494, "Ġcam": 4495, "102": 4496, "vr": 4497, "Ġmotion": 4498, "Ġinformation": 4499, "Ġhearing": 4500, "Ġbatt": 4501, "Ġgroan": 4502, "Ġmult": 4503, "Ġbrow": 4504, "107": 4505, "ĠMac": 4506, "ĠKing": 4507, "Ġflut": 4508, "urb": 4509, "Ġcomment": 4510, "ences": 4511, "Ġmark": 4512, "ulus": 4513, "Ġbord": 4514, "Ġrolling": 4515, "oni": 4516, "Ġsurv": 4517, "Ġdonc": 4518, "813": 4519, "Ġdressed": 4520, "ĠpÃ©ri": 4521, "Ġled": 4522, "Ġfly": 4523, "ĠMa": 4524, "vering": 4525, "fred": 4526, "Ġconse": 4527, "ache": 4528, "Ġglance": 4529, "Ġvoy": 4530, "Ġsqueezed": 4531, "see": 4532, "ĠPlease": 4533, "dec": 4534, "aughter": 4535, "Ġitalienne": 4536, "oom": 4537, "Ġdad": 4538, "Ġbother": 4539, "ondissement": 4540, "ements": 4541, "ĠCarl": 4542, "Ġshake": 4543, "Selon": 4544, "Ġrou": 4545, "ĠespÃ¨ces": 4546, "Ġ'": 4547, "ival": 4548, "ĠTheir": 4549, "onyme": 4550, "Ġagreed": 4551, "Ġthin": 4552, "Ġplantes": 4553, "ising": 4554, "Ġexh": 4555, "inter": 4556, "Ġfaire": 4557, "Ġteam": 4558, "Ġwave": 4559, "Ġkeeps": 4560, "Ġspine": 4561, "Ġregret": 4562, "ĠgÃ©nÃ©ral": 4563, "ieux": 4564, "Ġwatches": 4565, "Ġbelow": 4566, "Ġlikely": 4567, "ĠOf": 4568, "Ġhasn": 4569, "ores": 4570, "yant": 4571, "Ġdreams": 4572, "Ġamount": 4573, "Ġfant": 4574, "Ġbringing": 4575, "Ġremained": 4576, "ĠSeokjin": 4577, "icul": 4578, "ĠDr": 4579, "Ġlaught": 4580, "Ġdoctor": 4581, "Ġquelques": 4582, "875": 4583, "Hermione": 4584, "Ġeyebrows": 4585, "Ġvilles": 4586, "Ġlaughter": 4587, "Ġpsy": 4588, "enant": 4589, "....": 4590, "rad": 4591, "ibly": 4592, "Ġmetal": 4593, "Ġappeared": 4594, "Ġbritannique": 4595, "Ġmoy": 4596, "ĠgÃ©nÃ©ra": 4597, "aft": 4598, "Ġwel": 4599, "Ġwilling": 4600, "419": 4601, "Ġsides": 4602, "Ġstands": 4603, "Ġprincipalement": 4604, "Ġraison": 4605, "ortun": 4606, "Ġoffer": 4607, "ĠConst": 4608, "Ġsorti": 4609, "Ġbat": 4610, "isÃ©": 4611, "erd": 4612, "ourt": 4613, "acket": 4614, "ĠFranc": 4615, "Ġcoo": 4616, "Ġcertains": 4617, "uxian": 4618, "ĠDav": 4619, "ĠprÃ©c": 4620, "Ġwomen": 4621, "Ġleurs": 4622, "Ġspell": 4623, "ĠRoy": 4624, "ĠMike": 4625, "Er": 4626, "ctions": 4627, "Ġintense": 4628, "Ġmovement": 4629, "fic": 4630, "Ġahead": 4631, "ĠYu": 4632, "aden": 4633, "Ġinit": 4634, "Ġmois": 4635, "ĠÃ©d": 4636, "alfoy": 4637, "anz": 4638, "rom": 4639, "Ġblinked": 4640, "Ġ()": 4641, "ĠSer": 4642, "Ġmoney": 4643, "unn": 4644, "ĠWuxian": 4645, "Ġcaract": 4646, "Ġmuttered": 4647, "Ġcontinues": 4648, "Ġpure": 4649, "udwig": 4650, "nÃ©e": 4651, "142": 4652, "Ġsensitive": 4653, "olution": 4654, "ĠKir": 4655, "Ġdesperately": 4656, "ĠCass": 4657, "rig": 4658, "Ġrock": 4659, "line": 4660, "rog": 4661, "Se": 4662, "Ġlevel": 4663, "Because": 4664, "Ġomega": 4665, "eral": 4666, "Ġbegins": 4667, "ification": 4668, "alle": 4669, "ĠJo": 4670, "Ġfocused": 4671, "Ġtrava": 4672, "Ã¨tres": 4673, "Ġprend": 4674, "Ġstairs": 4675, "Ġloudly": 4676, "Ġhoped": 4677, "Ġbusiness": 4678, "inging": 4679, "entre": 4680, "emple": 4681, "ĠKaz": 4682, "Ġamazing": 4683, "Ã©nar": 4684, "ĠSup": 4685, "Ġmelt": 4686, "Ġvib": 4687, "ĠJin": 4688, "Ġnaz": 4689, "ye": 4690, "Ì©": 4691, "ĠdÃ©cl": 4692, "enc": 4693, "Ġmere": 4694, "Ġshare": 4695, "Ġlights": 4696, "Ġboys": 4697, "Ġ4": 4698, "Ġcorrect": 4699, "Ġmor": 4700, "bled": 4701, "ĠSeconde": 4702, "Ġseule": 4703, "bling": 4704, "Ġfirmly": 4705, "lla": 4706, "ĠMon": 4707, "Ġcurs": 4708, "Ġperfectly": 4709, "Ġtug": 4710, "Ġspecial": 4711, "Ġopens": 4712, "Ġpeup": 4713, "Ġhated": 4714, "anny": 4715, "Ġvit": 4716, "Ġdim": 4717, "Ġinstinct": 4718, "lection": 4719, "ommy": 4720, "inte": 4721, "Ġsne": 4722, "Ġ[": 4723, "Ġforth": 4724, "Ġtalked": 4725, "Ã¶n": 4726, "ĠsÃ©": 4727, "ĠreÃ§": 4728, "Ġlust": 4729, "Ġshowed": 4730, "ĠAk": 4731, "ĠHyunjin": 4732, "Ã¢teau": 4733, "Ġconv": 4734, "Ġtrouble": 4735, "ĠappelÃ©": 4736, "Ġtitre": 4737, "Ġwalks": 4738, "Ġpillow": 4739, "uts": 4740, "ĠGen": 4741, "Ġbreathed": 4742, "Empire": 4743, "ĠpossÃ¨de": 4744, "Ġtown": 4745, "Ġcareful": 4746, "ĠCam": 4747, "mbre": 4748, "Ġdarkness": 4749, "ĠrÃ©v": 4750, "896": 4751, "Ġkilled": 4752, "431": 4753, "Ġcannot": 4754, "iÃ¨rement": 4755, "Ġpale": 4756, "Ġreass": 4757, "Ġmurmured": 4758, "gress": 4759, "ĠFriedrich": 4760, "Ġjournal": 4761, "ĠBeatrice": 4762, "Ġtravers": 4763, "ĠJisung": 4764, "uest": 4765, "oken": 4766, "Ġspeaking": 4767, "Ġreaction": 4768, "ĠÅĵu": 4769, "Ġmatch": 4770, "ĠcatÃ©g": 4771, "Ġcaress": 4772, "Ġayant": 4773, "Ãªt": 4774, "Ġoverwhel": 4775, "Ġrelease": 4776, "Ġhanging": 4777, "937": 4778, "ĠSil": 4779, "Ġorgan": 4780, "Ġcurled": 4781, "oose": 4782, "Ġgun": 4783, "Ġinflu": 4784, "152": 4785, "ĠMaya": 4786, "690": 4787, "Ġvul": 4788, "ĠCharles": 4789, "Ġbrown": 4790, "Ġcand": 4791, "Ġbot": 4792, "Ġsear": 4793, "Ġval": 4794, "Ġroute": 4795, "Ġchim": 4796, "135": 4797, "Ġwhether": 4798, "oseok": 4799, "Ġpersonal": 4800, "Ġpocket": 4801, "Ã©ro": 4802, "Ġprix": 4803, "Ġcab": 4804, "ichi": 4805, "600": 4806, "Will": 4807, "ĠNi": 4808, "1297": 4809, "Sorry": 4810, "412": 4811, "Ġviv": 4812, "Ã«": 4813, "ĠMag": 4814, "Ġlog": 4815, "Ġblanket": 4816, "ĠdÃ©veloppement": 4817, "bin": 4818, "Ġfault": 4819, "aki": 4820, "Ġshiver": 4821, "Ġsocial": 4822, "Ġbuck": 4823, "obl": 4824, "Ġarrived": 4825, "urent": 4826, "Ġsheets": 4827, "Ġ5": 4828, "Ġclaw": 4829, "ĠRuby": 4830, "Ġrapid": 4831, "Ġcraw": 4832, "arrondissement": 4833, "Ġwear": 4834, "anted": 4835, "emberg": 4836, "lec": 4837, "Ant": 4838, "Ġ2022": 4839, "Ġdied": 4840, "Ġeasier": 4841, "Ġnone": 4842, "Ġenjoying": 4843, "Ġsmirked": 4844, "Ġhip": 4845, "ĠFin": 4846, "Ġtension": 4847, "ĠLi": 4848, "ĠVictor": 4849, "Ġvall": 4850, "950": 4851, "bby": 4852, "uru": 4853, "Ã´t": 4854, "820": 4855, "anisation": 4856, "139": 4857, "Ġclosing": 4858, "ased": 4859, "Ġcard": 4860, "Ġequ": 4861, "Ġlaque": 4862, "well": 4863, "play": 4864, "Ġblind": 4865, "488": 4866, "Ã©ma": 4867, "agu": 4868, "Ġurb": 4869, "mÃªme": 4870, "Ġsucking": 4871, "ĠKatsuki": 4872, "uelle": 4873, "Ġcrowd": 4874, "Ġinternational": 4875, "Steve": 4876, "izing": 4877, "Ġescape": 4878, "aid": 4879, "Every": 4880, "cs": 4881, "Ġprofesseur": 4882, "Ġfleurs": 4883, "ashes": 4884, "Ġdisappoint": 4885, "Ġinde": 4886, "Å¡": 4887, "ĠJoe": 4888, "Ġaur": 4889, "Ġindust": 4890, "ĠRen": 4891, "ĠdÃ©t": 4892, "108": 4893, "Ġpushes": 4894, "arg": 4895, "rate": 4896, "umed": 4897, "Ġfaint": 4898, "ĠprÃ©sent": 4899, "resp": 4900, "ola": 4901, "873": 4902, "Ġsoot": 4903, "iro": 4904, "Ġprofession": 4905, "Ġgreet": 4906, "Ġtravel": 4907, "Ed": 4908, "163": 4909, "ĠdÃ©couvert": 4910, "ĠappelÃ©e": 4911, "aimed": 4912, "433": 4913, "Ġenfants": 4914, "ona": 4915, "otte": 4916, "ĠJac": 4917, "quis": 4918, "ĠHell": 4919, "Harry": 4920, "heart": 4921, "Ġbooks": 4922, "Ġtail": 4923, "iller": 4924, "Ġdiscuss": 4925, "Ġhistorique": 4926, "ĠSatoru": 4927, "Ġrencont": 4928, "ugust": 4929, "iat": 4930, "Ġfist": 4931, "Ġratt": 4932, "Ġlung": 4933, "Ġgrabs": 4934, "Â´": 4935, "Ġcell": 4936, "Ġdeterm": 4937, "ĠOnce": 4938, "Ġstick": 4939, "Ġscrat": 4940, "Ġbreaking": 4941, "ĠÃ©conomique": 4942, "ĠVash": 4943, "Ġdaughter": 4944, "Ġrev": 4945, "Ġsusp": 4946, "Ġallow": 4947, "Ġjoin": 4948, "Ġanglais": 4949, "ĠSl": 4950, "Ġempl": 4951, "Ġprince": 4952, "ancien": 4953, "480": 4954, "ĠÃ®": 4955, "Ġinvol": 4956, "Ġiss": 4957, "ĠLevi": 4958, "asc": 4959, "Ġmajor": 4960, "aved": 4961, "Ġtells": 4962, "498": 4963, "Ġcunt": 4964, "Ġshowing": 4965, "ĠWilhelm": 4966, "Ġanticip": 4967, "Ġlongue": 4968, "ĠrÃ´le": 4969, "Ġscoff": 4970, "Ġpanic": 4971, "Ġhelping": 4972, "Ġzone": 4973, "Ġense": 4974, "Ġstroking": 4975, "idge": 4976, "Ġlivre": 4977, "455": 4978, "185": 4979, "erved": 4980, "feld": 4981, "rÃ©t": 4982, "Ġchez": 4983, "ĠAre": 4984, "Ġdrive": 4985, "aming": 4986, "eding": 4987, "800": 4988, "490": 4989, "Ġsword": 4990, "ĠChuuya": 4991, "Ġfille": 4992, "Ġmostly": 4993, "emon": 4994, "hi": 4995, "Ġlaquelle": 4996, "Ġgard": 4997, "Ġfonction": 4998, "Ġtast": 4999, "Ġoccasion": 5000, "Ġchuckle": 5001, "cted": 5002, "Ġloves": 5003, "jours": 5004, "Ġtrembling": 5005, "Ġvisit": 5006, "ĠHu": 5007, "ĠscÃ©nar": 5008, "ĠII": 5009, "Ġclut": 5010, "kes": 5011, "ĠLord": 5012, "onnie": 5013, "una": 5014, "Ġbreaths": 5015, "Ġupset": 5016, "ĠsÃ©rie": 5017, "Ġhummed": 5018, "exp": 5019, "Ġattack": 5020, "Ġmilieu": 5021, "umbling": 5022, "Ġgrind": 5023, "irst": 5024, "Ġawake": 5025, "uÃ©": 5026, "Ġsqueezing": 5027, "Ġmid": 5028, "ĠDar": 5029, "Ġsuck": 5030, "ĠNeil": 5031, "Ġautre": 5032, "Ġentered": 5033, "ala": 5034, "Me": 5035, "Ġdog": 5036, "acy": 5037, "dess": 5038, "Ġlock": 5039, "ĠKim": 5040, "Ġmes": 5041, "Ġdens": 5042, "Ġbull": 5043, "ived": 5044, "Ġinstantly": 5045, "Ġfais": 5046, "Ġjud": 5047, "Ġearn": 5048, "ĠSas": 5049, "Ġstone": 5050, "ĠFuck": 5051, "Ġnote": 5052, "Ġroi": 5053, "inger": 5054, "arily": 5055, "Ġcalling": 5056, "Ġprev": 5057, "Ġstares": 5058, "Ġblush": 5059, "ĠPet": 5060, "845": 5061, "gen": 5062, "905": 5063, "wan": 5064, "Ġappear": 5065, "430": 5066, "ĠdÃ¨s": 5067, "Ġexcitement": 5068, "633": 5069, "ĠBahreÃ¯n": 5070, "ĠAdam": 5071, "Ġelb": 5072, "Ġ/": 5073, "Ã¢tre": 5074, "Ġjacket": 5075, "ateurs": 5076, "Ġdelight": 5077, "arke": 5078, "Ã®tre": 5079, "Ġwoke": 5080, "Ġdoors": 5081, "Ġreply": 5082, "Ġslick": 5083, "Ġpartner": 5084, "nde": 5085, "sc": 5086, "atif": 5087, "ĠsiÃ¨ge": 5088, "ila": 5089, "ĠChicago": 5090, "rale": 5091, "osaur": 5092, "Ġcloud": 5093, "Ġfrowned": 5094, "ĠSomething": 5095, "Ġnumber": 5096, "orted": 5097, "Ġunderstood": 5098, "Ang": 5099, "Ġnipples": 5100, "ishes": 5101, "ĠReina": 5102, "idae": 5103, "489": 5104, "Ġpropos": 5105, "ĠInstead": 5106, "ĠGeorg": 5107, "ias": 5108, ",âĢĻ": 5109, "¸Ń": 5110, "Ġdirectly": 5111, "Ġmood": 5112, "Draco": 5113, "Ġparti": 5114, "ĠBilly": 5115, "Ġrur": 5116, "Des": 5117, "ĠCast": 5118, "och": 5119, "ĠLoki": 5120, "ĠMalfoy": 5121, "?!\"": 5122, "imp": 5123, "ä¸Ń": 5124, "Ġcycl": 5125, "ider": 5126, "ĠAny": 5127, "Ġwine": 5128, "Ġwhenever": 5129, "Ġtraining": 5130, "Ġice": 5131, "ĠRobert": 5132, "Ġcurious": 5133, "Ġmissing": 5134, "Ġreading": 5135, "Ac": 5136, "\").": 5137, "ĠHowever": 5138, "Ġeating": 5139, "Ã¨que": 5140, "Ġhint": 5141, "ermann": 5142, "oned": 5143, "empl": 5144, "Ġheavily": 5145, "Ġrelie": 5146, "ĠZoro": 5147, "Ġhiding": 5148, "Ġgrate": 5149, "Ġreste": 5150, "ĠrÃ©alisateur": 5151, "Ġslip": 5152, "Ġcrazy": 5153, "Ġmate": 5154, "Ġpeintre": 5155, "ĠHans": 5156, "thm": 5157, "Â»": 5158, "oi": 5159, "inc": 5160, "olit": 5161, "Ã¢ce": 5162, "onie": 5163, "Ouest": 5164, "Ġdram": 5165, "Ġshame": 5166, "umbles": 5167, "Ġsending": 5168, "ĠIr": 5169, "Alright": 5170, "imit": 5171, "ĠYe": 5172, "ĠnommÃ©": 5173, "hl": 5174, "ĠLance": 5175, "Ġattr": 5176, "ĠRemus": 5177, "137": 5178, "xa": 5179, "Ġconfusion": 5180, "Ġopportun": 5181, "Ġgrun": 5182, "Ġhuge": 5183, "ĠBy": 5184, "issipp": 5185, "Ġadministratif": 5186, "allen": 5187, "Ġmeurt": 5188, "isc": 5189, "Ġbirth": 5190, "Ġdrift": 5191, "933": 5192, "Ġdear": 5193, "prise": 5194, "Ġconcentr": 5195, "Ġshoot": 5196, "antic": 5197, "ular": 5198, "112": 5199, "Ġsac": 5200, "Ġrelaxed": 5201, "Ġlistening": 5202, "Ġnational": 5203, "anne": 5204, "ĠcinÃ©ma": 5205, "ĠMÃ¼": 5206, "ĠSebastian": 5207, "468": 5208, "Ġuncomfortable": 5209, "Ġbreakfast": 5210, "urg": 5211, "Ġthrowing": 5212, "Ġcad": 5213, "Ġdue": 5214, "Ġcolor": 5215, "Ġwings": 5216, "Ġknee": 5217, "mar": 5218, "ĠEs": 5219, "Ġreact": 5220, "Ġconnue": 5221, "alous": 5222, "Ġlikes": 5223, "799": 5224, "Ġvar": 5225, "dorf": 5226, "Ġlearned": 5227, "ĠMan": 5228, "Ġrush": 5229, "ifique": 5230, "Ġsaf": 5231, "ĠDazai": 5232, "Ġflushed": 5233, "Ġpresses": 5234, "Ġtick": 5235, "ĠMal": 5236, "Ġcompany": 5237, "ĠYing": 5238, "500": 5239, "136": 5240, "To": 5241, "Ġfavorite": 5242, "ĠLuci": 5243, "Ã©tend": 5244, "ato": 5245, "Ġwished": 5246, "Ġ@": 5247, "stad": 5248, "Ġrang": 5249, "Ġshy": 5250, "Ġobviously": 5251, "Ġmoon": 5252, "687": 5253, "Ġhardly": 5254, "Ġrain": 5255, "Europe": 5256, "Ġscreen": 5257, "Ã©rature": 5258, "Ġpicture": 5259, "ese": 5260, "Ġbelong": 5261, "Ġlac": 5262, "Ġintrodu": 5263, "ration": 5264, "fecture": 5265, "ĠHoll": 5266, "ĠStill": 5267, "Ġfilms": 5268, "Ġmovements": 5269, "Ġthird": 5270, "ĠPal": 5271, "471": 5272, "uffled": 5273, "acher": 5274, "assin": 5275, "Ġclenched": 5276, "Ġdrawing": 5277, "pected": 5278, "Ġhallway": 5279, "Ġworst": 5280, "Ġstops": 5281, "Ġvamp": 5282, "809": 5283, "459": 5284, "Ġretrou": 5285, "wise": 5286, "Ġwaves": 5287, "urtemberg": 5288, "isation": 5289, "uv": 5290, "aky": 5291, "Ġrhy": 5292, "466": 5293, "zo": 5294, "Ġburied": 5295, "138": 5296, "bec": 5297, "Ġwit": 5298, "Ġlab": 5299, "Ġembr": 5300, "Ġoh": 5301, "Ġplacing": 5302, "Ġdisg": 5303, "Ġpack": 5304, "Ġpowerful": 5305, "Ġbond": 5306, "Ġrecher": 5307, "ima": 5308, "sch": 5309, "Ġdeserve": 5310, "ĠCarina": 5311, "awa": 5312, "Ġsold": 5313, "ĠchÃ¢teau": 5314, "ushes": 5315, "Ġreminded": 5316, "suite": 5317, "400": 5318, "Ã©ros": 5319, "Ġloving": 5320, "Ġresist": 5321, "Ġstretched": 5322, "Ġtear": 5323, "Ġwondering": 5324, "ĠmÃ¨re": 5325, "Ġconsider": 5326, "respond": 5327, "Ġobt": 5328, "issippi": 5329, "Ġharsh": 5330, "ĠcatÃ©gor": 5331, "Ġblock": 5332, "Ġjumped": 5333, "Ġgolden": 5334, "Ġhidden": 5335, "ĠRegulus": 5336, "Who": 5337, "Ġaccident": 5338, "ral": 5339, "ĠMannheim": 5340, "Ġjoy": 5341, "Ġwed": 5342, "Ġuh": 5343, "ĠBucky": 5344, "436": 5345, "Ã¨rent": 5346, "Ġwrapping": 5347, "ÍĦ": 5348, "uto": 5349, "ĠFe": 5350, "ĠAir": 5351, "Look": 5352, "Ġassoci": 5353, "ĠpÃ©riode": 5354, "atic": 5355, "ĠJohann": 5356, "iellement": 5357, "Ġthrusts": 5358, "Ġunivers": 5359, "eping": 5360, "Ġconna": 5361, "Ġlives": 5362, "Ġmask": 5363, "ĠDa": 5364, "Ġopt": 5365, "iforn": 5366, "illeurs": 5367, "gart": 5368, "Ġder": 5369, "Ġforest": 5370, "ĠSoap": 5371, "Ġangel": 5372, "Ġtender": 5373, "Ġdoc": 5374, "Ġgirlfriend": 5375, "Ġshall": 5376, "Ġinch": 5377, "vant": 5378, "Ġsucked": 5379, "Ġimpossible": 5380, "Ġbecoming": 5381, "Ġarchitect": 5382, "One": 5383, "py": 5384, "Ã©poque": 5385, "Ġservice": 5386, "475": 5387, "Ġfranc": 5388, "Ġplayed": 5389, "426": 5390, "wo": 5391, "Ġproperly": 5392, "Ġgenu": 5393, "Ġcontent": 5394, "ÍĿ": 5395, "verse": 5396, "Ġcommunes": 5397, "Ġpetite": 5398, "Ġrhythm": 5399, "Luc": 5400, "ĠMagn": 5401, "ĠCas": 5402, "Ge": 5403, "Ġperform": 5404, "oseph": 5405, "Ġven": 5406, "ĠdÃ©sign": 5407, "Ġhonestly": 5408, "Bl": 5409, "ĠTom": 5410, "Ġincre": 5411, "sidered": 5412, "Ġrested": 5413, "gar": 5414, "Ġmath": 5415, "ensemble": 5416, "Ġbattle": 5417, "Ġexemple": 5418, "477": 5419, "olas": 5420, "Ġtourn": 5421, "axe": 5422, "Ġgrowled": 5423, "ĠdensitÃ©": 5424, "Ġcaused": 5425, "ugo": 5426, "lam": 5427, "Ġfurrow": 5428, "453": 5429, "hab": 5430, "Ġplans": 5431, "Ġpermet": 5432, "essed": 5433, "Even": 5434, "Ġchat": 5435, "Ġbul": 5436, "ĠWal": 5437, "828": 5438, "Ġsetting": 5439, "ilisation": 5440, "Ġconstitu": 5441, "Ġparfois": 5442, "Ġreality": 5443, "Ġshudd": 5444, "Ġinj": 5445, "occ": 5446, "iana": 5447, "Ġcorrespond": 5448, "ĠJul": 5449, "ĠMic": 5450, "Ġpra": 5451, "wa": 5452, "Ġdurant": 5453, "Ġtoujours": 5454, "415": 5455, "ĠSuisse": 5456, "Ġaffection": 5457, "Ġneither": 5458, "Ġsuppose": 5459, "ĠHoseok": 5460, "ĠItalie": 5461, "acide": 5462, "night": 5463, "aison": 5464, "Ġident": 5465, "Dep": 5466, "Ġrolls": 5467, "rian": 5468, "Ġrusse": 5469, "Ġbiting": 5470, "ependant": 5471, "Ġbrushed": 5472, "Ġfilling": 5473, "Ġmission": 5474, "Ġmillions": 5475, "ĠannÃ©e": 5476, "630": 5477, "622": 5478, "Ġstiff": 5479, "203": 5480, "iao": 5481, "Ġghost": 5482, "Ġcher": 5483, "Ġliqu": 5484, "Ġconsidered": 5485, "ĠLand": 5486, "Ġdragged": 5487, "Ġmumbled": 5488, "Ġdripping": 5489, "\"...": 5490, "ulse": 5491, "935": 5492, "Ġavait": 5493, "Ġhosp": 5494, "Ġhungry": 5495, "Ġfemme": 5496, "ĠSal": 5497, "ĠMichael": 5498, "Ġembrace": 5499, "Ġpatient": 5500, "annÃ©e": 5501, "abb": 5502, "Ġvari": 5503, "Ġadmitted": 5504, "Ġmaster": 5505, "ĠsociÃ©tÃ©": 5506, "ĠMos": 5507, "vert": 5508, "808": 5509, "met": 5510, "Ġleather": 5511, "rupt": 5512, "umble": 5513, "Ġblur": 5514, "Ġspeed": 5515, "Ġencour": 5516, "ĠWho": 5517, "--------": 5518, "Ġavoid": 5519, "itation": 5520, "Ġhun": 5521, "iving": 5522, "Ġpouvoir": 5523, "Ġgroans": 5524, "Ġbeau": 5525, "949": 5526, "Ġobl": 5527, "Ġslide": 5528, "Ġformer": 5529, "\"'": 5530, "apping": 5531, "Paul": 5532, "Ġdrew": 5533, "zing": 5534, "erally": 5535, "ĠdÃ©finie": 5536, "ether": 5537, "ism": 5538, "Ġjeu": 5539, "Ġlosing": 5540, "Ġrequest": 5541, "Go": 5542, "ĠThough": 5543, "Ġstars": 5544, "Ġknife": 5545, "Ġhears": 5546, "ev": 5547, "ury": 5548, "122": 5549, "Ġdirty": 5550, "ĠTheo": 5551, "frique": 5552, "Ġjoue": 5553, "uer": 5554, "ĠHaut": 5555, "ĠLondres": 5556, "Ġsqueeze": 5557, "Ġqual": 5558, "iano": 5559, "810": 5560, "Ġparticip": 5561, "ĠmÃ©dec": 5562, "Ġalthough": 5563, "ĠÃ©taient": 5564, "435": 5565, "Ġpoints": 5566, "Ġbou": 5567, "chie": 5568, "Ġpout": 5569, "ĠRobin": 5570, "826": 5571, "ĠGy": 5572, "Ġsyn": 5573, "Ġpanting": 5574, "Ġ7": 5575, "876": 5576, "Ġils": 5577, "Ġnatural": 5578, "ĠdeuxiÃ¨me": 5579, "pir": 5580, "Ġfaces": 5581, "stairs": 5582, "Ġballs": 5583, "Ġembarrassed": 5584, "Ġfigured": 5585, "enly": 5586, "463": 5587, "Ġ13": 5588, "Ġsitue": 5589, "ĠJen": 5590, "Ġpurpose": 5591, "Ġshift": 5592, "Ġinnoc": 5593, "444": 5594, "van": 5595, "anta": 5596, "484": 5597, "110": 5598, "Ġhaut": 5599, "Ġease": 5600, "ĠamÃ©ricaine": 5601, "ĠParti": 5602, "astic": 5603, "ledge": 5604, "786": 5605, "ĠDaniel": 5606, "Ġdisp": 5607, "478": 5608, "acter": 5609, "resse": 5610, "Ġcharm": 5611, "Ġvend": 5612, "aprÃ¨s": 5613, "rection": 5614, "abord": 5615, "Ġaband": 5616, "Ġroad": 5617, "ĠBefore": 5618, "Ġloose": 5619, "Ġtighter": 5620, "Ġruns": 5621, "Ġpsych": 5622, "col": 5623, "autÃ©": 5624, "450": 5625, "Ġtravail": 5626, "ĠgrÃ¢ce": 5627, "Ġbutt": 5628, "Ġstreet": 5629, "Ġforgotten": 5630, "Ġregard": 5631, "Ġspark": 5632, "hood": 5633, "Ġcook": 5634, "ako": 5635, "orts": 5636, "Ġwidened": 5637, "Ġdangerous": 5638, "ĠMad": 5639, "Ġnad": 5640, "ĠrÃ©alisÃ©": 5641, "Ġteased": 5642, "Ġsource": 5643, "Ġrepeated": 5644, "Ġopportunity": 5645, "Ġnails": 5646, "ĠKat": 5647, "Ġwrit": 5648, "mo": 5649, "icle": 5650, "Ġutter": 5651, "time": 5652, "Ġwore": 5653, "Ġtoute": 5654, "ĠčĊ": 5655, "Ġsout": 5656, "Ġenjoyed": 5657, "ĠMo": 5658, "jun": 5659, "ĠArthur": 5660, "Ġplat": 5661, "Ġcenter": 5662, "olique": 5663, "Ġache": 5664, "Ġscar": 5665, "Ġprepared": 5666, "lo": 5667, "Ġlicked": 5668, "002": 5669, "473": 5670, "Ġexperien": 5671, "895": 5672, "ĠintÃ©": 5673, "183": 5674, "oute": 5675, "Ġroya": 5676, "Ġpieces": 5677, "ept": 5678, "Ġtrain": 5679, "Ġmilitaire": 5680, "..\"": 5681, "ront": 5682, "Ġsepar": 5683, "ĠPot": 5684, "Ġagree": 5685, "eff": 5686, "Ġexpecting": 5687, "ĠJan": 5688, "Ġtilted": 5689, "ĠthÃ©Ã¢tre": 5690, "676": 5691, "ĠÃ©pouse": 5692, "Ġcommunale": 5693, "Ã»t": 5694, "Ġdrunk": 5695, "jue": 5696, "ordan": 5697, "Ġarousal": 5698, "ĠdÃ©f": 5699, "Ġdroit": 5700, "Ġtang": 5701, "ems": 5702, "Ġconcerned": 5703, "Ġban": 5704, "Ġenv": 5705, "ified": 5706, "ĠCo": 5707, "483": 5708, "Ġorient": 5709, "pte": 5710, "Ġpit": 5711, "120": 5712, "Ġanywhere": 5713, "ills": 5714, "Ġbrushing": 5715, "ĠĠ": 5716, "ĠBade": 5717, "Ġcomplete": 5718, "Ġstorm": 5719, "434": 5720, "679": 5721, "Ġmessage": 5722, "Ġlicking": 5723, "Ġanswers": 5724, "Ġtreat": 5725, "ĠSanji": 5726, "Where": 5727, "Ġdiss": 5728, "452": 5729, "Ġmaison": 5730, "Ġlowered": 5731, "939": 5732, "ĠRich": 5733, "670": 5734, "otsdam": 5735, "492": 5736, "922": 5737, "Ġpleased": 5738, "Ġsand": 5739, "Qu": 5740, "Depuis": 5741, "iner": 5742, "1083": 5743, "ĠutilisÃ©": 5744, "ĠcÃ©lÃ¨": 5745, "Ġlangue": 5746, "ini": 5747, "attered": 5748, "arts": 5749, "Ġobject": 5750, "wear": 5751, "oos": 5752, "ĠMeg": 5753, "Ġreleased": 5754, "ida": 5755, "126": 5756, "ographie": 5757, "Ġbound": 5758, "ution": 5759, "Once": 5760, "Ġapproached": 5761, "Ġgrateful": 5762, "?!": 5763, "Ġlean": 5764, "ouvement": 5765, "Ġsimilar": 5766, "472": 5767, "Ġdrops": 5768, "chest": 5769, "Ġaccord": 5770, "mma": 5771, "Ġtwist": 5772, "wh": 5773, "Ġfingert": 5774, "ĠNouve": 5775, "165": 5776, "ship": 5777, "Ġapparently": 5778, "Ġallowing": 5779, "Ġride": 5780, "Ġpromised": 5781, "idy": 5782, "Ġgripped": 5783, "Ã©sie": 5784, "Ãªque": 5785, "Ġtort": 5786, "Ġpossibly": 5787, "Ġanci": 5788, "ĠpremiÃ¨res": 5789, "ficie": 5790, "Ġwrap": 5791, "Ġdivers": 5792, "496": 5793, "880": 5794, "Ġsilently": 5795, "Ġhappily": 5796, "ament": 5797, "Ġgather": 5798, "Ġtense": 5799, "tto": 5800, "ĠBlack": 5801, "ĠKara": 5802, "ĠTommy": 5803, "Ġignore": 5804, "ĠAlec": 5805, "Ġwhimper": 5806, "iko": 5807, "Ã©rieur": 5808, "ĠsÃ©p": 5809, "mil": 5810, "ĠprÃ©fecture": 5811, "487": 5812, "agnol": 5813, "Ġnews": 5814, "Ġcrack": 5815, "liver": 5816, "ĠLudwig": 5817, "ĠEurope": 5818, "ĠGra": 5819, "Ġputs": 5820, "Ġterrif": 5821, "Ġamong": 5822, "Ġnaissance": 5823, "ÍĻ": 5824, "Ġhig": 5825, "Ġsignif": 5826, "amme": 5827, "Ġmassive": 5828, "Ġsymb": 5829, "Ġchant": 5830, "428": 5831, "heng": 5832, "ifornie": 5833, "946": 5834, "hor": 5835, "Ġpoor": 5836, "glise": 5837, "ĠMay": 5838, "ckar": 5839, "Ġprim": 5840, "abor": 5841, "Ġdouble": 5842, "Ġbutton": 5843, "129": 5844, "work": 5845, "ĠLady": 5846, "Ġflin": 5847, "iet": 5848, "Ġversion": 5849, "Ġpu": 5850, "ĠZhan": 5851, "ĠHong": 5852, "ĠKiel": 5853, "Right": 5854, "Ġmembres": 5855, "aviÃ¨re": 5856, "ito": 5857, "uttgart": 5858, "Ġdam": 5859, "Ġbrows": 5860, "Ġscient": 5861, "Ġstrang": 5862, "ĠDom": 5863, "thy": 5864, "Ġbriefly": 5865, "Saint": 5866, "Pour": 5867, "ox": 5868, "Ġurge": 5869, "ĠDam": 5870, "ĠRey": 5871, "aurice": 5872, "ĠHel": 5873, "ivid": 5874, "438": 5875, "Ġflick": 5876, "Ġensuite": 5877, "Ġnecess": 5878, "Ex": 5879, "470": 5880, "Ġfalls": 5881, "Ġbruis": 5882, "610": 5883, "Ġhuh": 5884, "Ġsuccess": 5885, "Ġcarried": 5886, "ĠpoÃ¨te": 5887, "Ġthanks": 5888, "addy": 5889, "Ġunique": 5890, "Ġstar": 5891, "athan": 5892, "ĠgÃ©nÃ©ralement": 5893, "Ġship": 5894, "Ġ8": 5895, "405": 5896, "Ġlequel": 5897, "cri": 5898, "ends": 5899, "ham": 5900, "Ġparts": 5901, "hr": 5902, "Ġceiling": 5903, "425": 5904, "akashi": 5905, "odes": 5906, "Ġresponded": 5907, "Ġmatt": 5908, "Ġbrush": 5909, "ÅĤ": 5910, "ĠPhilipp": 5911, "Ġvic": 5912, "oof": 5913, "ĠDin": 5914, "Ġfallen": 5915, "Ġfunny": 5916, "Ġcalls": 5917, "Ġcleared": 5918, "ava": 5919, "Ġscreamed": 5920, "itution": 5921, "Ġrising": 5922, "Ġtwisted": 5923, "sen": 5924, "my": 5925, "Ġjeune": 5926, "Ġpetit": 5927, "Ġspr": 5928, "Ġ6": 5929, "acle": 5930, "Ġcatching": 5931, "Ġmusique": 5932, "Az": 5933, "Ġslipping": 5934, "424": 5935, "Ġopposite": 5936, "Ġaction": 5937, "Ġforces": 5938, "ĠOl": 5939, "uddenly": 5940, "coup": 5941, "Ã©pend": 5942, "rÃ©e": 5943, "ĠpiÃ¨": 5944, "?âĢĻ": 5945, "Ġsilver": 5946, "Ġtree": 5947, "Ġshocked": 5948, "Ġcomprend": 5949, "825": 5950, "urich": 5951, "Ġmovie": 5952, "uro": 5953, "ĠBak": 5954, "inny": 5955, "ĠLuke": 5956, "Before": 5957, "Ġlunch": 5958, "ĠMatt": 5959, "ĠGw": 5960, "ĠVe": 5961, "ĠGal": 5962, "Ġphysical": 5963, "nesday": 5964, "Ġok": 5965, "Ġage": 5966, "427": 5967, "Ġreplies": 5968, "Ġheads": 5969, "Ġlaying": 5970, "Ġinternationale": 5971, "Ġmach": 5972, "Gu": 5973, "rite": 5974, "855": 5975, "ĠÃ©tudie": 5976, "ulf": 5977, "1316": 5978, "Ġking": 5979, "Ġtemp": 5980, "miss": 5981, "Ġreco": 5982, "ception": 5983, "Ġlucky": 5984, "Ġstream": 5985, "ĠdÃ©b": 5986, "Ġpoly": 5987, "ĠGi": 5988, "aret": 5989, "imitri": 5990, "Ġwink": 5991, "ĠBuck": 5992, "Ġcurls": 5993, "Ġenter": 5994, "agon": 5995, "Ġunderstanding": 5996, "Ġhospital": 5997, "ĠStuttgart": 5998, "ednesday": 5999, "ĠsuccÃ¨s": 6000, "Ġpremiers": 6001, "ĠAndrew": 6002, "ĠKo": 6003, "abe": 6004, "Ġexposed": 6005, "ĠMaster": 6006, "Ġdomin": 6007, "luent": 6008, "undred": 6009, "Ġreven": 6010, "Ġchuckles": 6011, "ĠHambourg": 6012, "144": 6013, "Ã©mie": 6014, "Avec": 6015, "Ġcelles": 6016, "arling": 6017, "ĠLy": 6018, "Ġintens": 6019, "alk": 6020, "482": 6021, "Ġhom": 6022, "ĠMartin": 6023, "ĠÃ©qu": 6024, "Ġimage": 6025, "493": 6026, "ĠConn": 6027, "umu": 6028, "403": 6029, "Ġcabin": 6030, "Ġlovely": 6031, "Ġdisplay": 6032, "olt": 6033, "Ġmoaning": 6034, "guk": 6035, "Ġjeans": 6036, "Ġterrible": 6037, "ĠfrontiÃ¨re": 6038, "Ġwonderful": 6039, "Ġinterested": 6040, "ĠfÃ©dÃ©ral": 6041, "Ġbear": 6042, "ĠPort": 6043, "ĠÂ»)": 6044, "lieu": 6045, "423": 6046, "arion": 6047, "icated": 6048, "ĠStre": 6049, "ummer": 6050, "Ġsnow": 6051, "Ġcovering": 6052, "Ġgrown": 6053, "uments": 6054, "Ġmattress": 6055, "Ġparticular": 6056, "465": 6057, "orra": 6058, "Ġfool": 6059, "ĠMarc": 6060, "Ġgripping": 6061, "ilitÃ©": 6062, "Ġcoat": 6063, "680": 6064, "469": 6065, "ĠPerhaps": 6066, "hoon": 6067, "Ġimagined": 6068, "board": 6069, "Ġ(Â«": 6070, "Ġforcing": 6071, "Ã¨ce": 6072, "Ġcompr": 6073, "Ġexch": 6074, "that": 6075, "ender": 6076, "Ġdirecteur": 6077, "Ġgasps": 6078, "ĠJay": 6079, "479": 6080, "Ġworks": 6081, "esterday": 6082, "ĠAts": 6083, "iche": 6084, "ĠÃ®les": 6085, "ĠLeo": 6086, "inal": 6087, "406": 6088, "ero": 6089, "itte": 6090, "ĠBa": 6091, "Ã¨mes": 6092, "983": 6093, "overed": 6094, "ĠPrague": 6095, "ĠLup": 6096, "Ġcompagn": 6097, "Any": 6098, "ichen": 6099, "Ġmari": 6100, "ĠLucy": 6101, "Ġdecision": 6102, "Ġboun": 6103, "oyen": 6104, "Ġfrustration": 6105, "Ġroyaume": 6106, "719": 6107, "Ġsniff": 6108, "ologique": 6109, "Ġstopping": 6110, "Son": 6111, "Ġaccomp": 6112, "Ġguilt": 6113, "ophie": 6114, "inand": 6115, "Ġcore": 6116, "ĠEx": 6117, "Ġgrille": 6118, "Ġspect": 6119, "fortun": 6120, "Insee": 6121, "omas": 6122, "uma": 6123, "Ġtwice": 6124, "ĠWolfwood": 6125, "erdinand": 6126, "Hy": 6127, "hu": 6128, "ooyoung": 6129, "Ġimpl": 6130, "Åĵur": 6131, "Ġsmaller": 6132, "gment": 6133, "930": 6134, "Ġconsidering": 6135, "God": 6136, "Ġtrail": 6137, "917": 6138, "ĠTony": 6139, "Ġshouted": 6140, "Ġwash": 6141, "Ġting": 6142, "458": 6143, "Ġnipple": 6144, "Ġglances": 6145, "ĠConse": 6146, "Ġshoes": 6147, "oto": 6148, "Ġheaded": 6149, "umped": 6150, "ieg": 6151, "Ġscreaming": 6152, "ĠlocalitÃ©": 6153, "agged": 6154, "Ġflood": 6155, "ĠCell": 6156, "Ġnerves": 6157, "chan": 6158, "Ġpiss": 6159, "ĠDel": 6160, "Ġmanage": 6161, "ĠMagnus": 6162, "422": 6163, "966": 6164, "Ġconcl": 6165, "Ãīglise": 6166, "acÃ©es": 6167, "ordre": 6168, "Ġelect": 6169, "819": 6170, "Ġbent": 6171, "velop": 6172, "643": 6173, "Ġdix": 6174, "hole": 6175, "Ġhanded": 6176, "Ġphilosop": 6177, "ĠWen": 6178, "Eddie": 6179, "783": 6180, "ciences": 6181, "787": 6182, "Hans": 6183, "ĠscÃ¨ne": 6184, "ĠTri": 6185, "Ġalc": 6186, "Ġsomewhat": 6187, "ially": 6188, "Ġpier": 6189, "1494": 6190, "Ġlines": 6191, "Ġoccident": 6192, "oblast": 6193, "Like": 6194, "Ġguest": 6195, "des": 6196, "ablement": 6197, "Ġcollar": 6198, "tout": 6199, "Ġdesign": 6200, "reur": 6201, "Ġunderwear": 6202, "Ġbegging": 6203, "Ġanimal": 6204, "Ġslee": 6205, "Ġpropre": 6206, "467": 6207, "Ġscene": 6208, "ĠConseil": 6209, "Ġformation": 6210, "Ġpainful": 6211, "onte": 6212, "Ġjealous": 6213, "Gr": 6214, "ĠZurich": 6215, "Ġinterrupted": 6216, "ĠcaractÃ©r": 6217, "ĠAg": 6218, "vier": 6219, "Ġhuffed": 6220, "ĠscÃ©nariste": 6221, "ĠGre": 6222, "gin": 6223, "Ġblade": 6224, "Ġaccess": 6225, "Ġlungs": 6226, "Ġharm": 6227, "Ġvict": 6228, "Ġlack": 6229, "900": 6230, "hetic": 6231, "407": 6232, "Ġprefer": 6233, "975": 6234, "nelle": 6235, "Ġbeaucoup": 6236, "Ġfingertips": 6237, "Ġlifting": 6238, "Ġhugged": 6239, "esides": 6240, "Ġlouder": 6241, "Ġnightm": 6242, "Ġemploy": 6243, "ĠLos": 6244, "Ġshaft": 6245, "Ġexhausted": 6246, "ĠMoscou": 6247, "Ġassist": 6248, "Ġcompositeur": 6249, "Ġbelt": 6250, "495": 6251, "Ġministre": 6252, "Ġposte": 6253, "ĠrÃ©fÃ©rence": 6254, "Ġcreature": 6255, "Ġmount": 6256, "noon": 6257, "Ġpool": 6258, "ĠfondÃ©e": 6259, "Ġlib": 6260, "Ġsuspic": 6261, "Wait": 6262, "Ġtowel": 6263, "lem": 6264, "Ġdare": 6265, "Ġcorps": 6266, "Ġbrings": 6267, "Ġjur": 6268, "ĠAdams": 6269, "464": 6270, "Ġsein": 6271, "Ġlocal": 6272, "lled": 6273, "ĠInd": 6274, "asing": 6275, "oncÃ©": 6276, "Ġtoutes": 6277, "ĠcatÃ©gorisÃ©e": 6278, "Ġjoined": 6279, "Ġaffect": 6280, "ĠMississippi": 6281, "ĠJordan": 6282, "615": 6283, "Ġpasse": 6284, "ij": 6285, "456": 6286, "Ġfusion": 6287, "ĠRome": 6288, "Ġsize": 6289, "Ġrive": 6290, "ĠDanny": 6291, "ĠtÃ©lÃ©v": 6292, "Ġhorn": 6293, "ĠComm": 6294, "Ġnit": 6295, "Ġgrim": 6296, "432": 6297, "Ġbites": 6298, "Ġimportante": 6299, "ĠSuguru": 6300, "Ġgrasp": 6301, "Ġfleuve": 6302, "ĠYes": 6303, "ivered": 6304, "onyoung": 6305, "Ġobtient": 6306, "ographe": 6307, "832": 6308, "Ġdropping": 6309, "Ġrecord": 6310, "ĠOnly": 6311, "Ġfeatures": 6312, "ĠDou": 6313, "orter": 6314, "ĠLeon": 6315, "uan": 6316, "Ġtand": 6317, "Ġoct": 6318, "ĠGÃ¶": 6319, "ĠRhin": 6320, "856": 6321, "ller": 6322, "485": 6323, "essor": 6324, "Ġprogress": 6325, "Ġactions": 6326, "Ġprivate": 6327, "rain": 6328, "izza": 6329, "John": 6330, "ĠmÃ©trop": 6331, "ĠpÃ©n": 6332, "617": 6333, "907": 6334, "Ġstruct": 6335, "Ġgiggled": 6336, "Ġridicul": 6337, "uli": 6338, "sib": 6339, "Ġprec": 6340, "ometimes": 6341, "Ġcared": 6342, "idÃ©": 6343, "Ġstatut": 6344, "ĠLexa": 6345, "aks": 6346, "Ġhappens": 6347, "Ġglasses": 6348, "816": 6349, "780": 6350, "NG": 6351, "Ġmarried": 6352, "ads": 6353, "orian": 6354, "emp": 6355, "Ġsurtout": 6356, "190": 6357, "once": 6358, "Ġrac": 6359, "962": 6360, "ruce": 6361, "Ġpassing": 6362, "Ġsubject": 6363, "]]": 6364, "Ġflash": 6365, "ĠspÃ©cial": 6366, "Ì§": 6367, "ĠMingjue": 6368, "Ġwedding": 6369, "Ġhundred": 6370, "Ġliterally": 6371, "Ġdancing": 6372, "ĠÃ©tabl": 6373, "ĠEverything": 6374, "Ġparted": 6375, "Ġdessin": 6376, "955": 6377, "Ġshadows": 6378, "Per": 6379, "Ġpicking": 6380, "ĠSm": 6381, "Ġluck": 6382, "iced": 6383, "Ġcomplex": 6384, "Ġshoved": 6385, "Ġdipl": 6386, "ĠKar": 6387, "ongh": 6388, "ĠNic": 6389, "462": 6390, "429": 6391, "409": 6392, "Ġcertaines": 6393, "Ġhook": 6394, "ĠMel": 6395, "ĠQue": 6396, "Ġregrou": 6397, "Ġ(,": 6398, "863": 6399, "ĠPotsdam": 6400, "Ġlived": 6401, "898": 6402, "Ġburned": 6403, "ĠHeinrich": 6404, "Ġproducteur": 6405, "2119": 6406, "Ġpeuvent": 6407, "Ġancienne": 6408, "umping": 6409, "orsche": 6410, "ĠThank": 6411, "Ġdict": 6412, "Ġproduction": 6413, "Ġgift": 6414, "451": 6415, "orough": 6416, "ĠTer": 6417, "ĠEll": 6418, "ĠmathÃ©mat": 6419, "Ġara": 6420, "Ġcloses": 6421, "Ġpalms": 6422, "uell": 6423, "ĠDark": 6424, "925": 6425, "Uni": 6426, "Ġniveaux": 6427, "Ġvoyage": 6428, "Ġyesterday": 6429, "Ġblow": 6430, "408": 6431, "ĠBerne": 6432, "leterre": 6433, "den": 6434, "Ġstaying": 6435, "Ġtucked": 6436, "Ro": 6437, "ilde": 6438, "Ġshop": 6439, "Ġextre": 6440, "Ġ30": 6441, "Ġrestaur": 6442, "cht": 6443, "Ġdecide": 6444, "Ġcircles": 6445, "ES": 6446, "Ġda": 6447, "Ġinner": 6448, "Ġsmoke": 6449, "Ġoriginaire": 6450, "461": 6451, "ski": 6452, "439": 6453, "Ġpause": 6454, "ĠStan": 6455, "ĠAb": 6456, "Ġraising": 6457, "460": 6458, "ĠPologne": 6459, "Ġslept": 6460, "882": 6461, "Ġafternoon": 6462, "stal": 6463, "Ġmonster": 6464, "Ġwarning": 6465, "Ġhero": 6466, "Ġdragging": 6467, "Some": 6468, "ulation": 6469, "ĠSu": 6470, "ĠClarke": 6471, "597": 6472, "ĠBra": 6473, "ureau": 6474, "79015": 6475, "Ġkil": 6476, "lock": 6477, "Ġrecall": 6478, "åľ": 6479, "str": 6480, "Ġdiz": 6481, "Ġ\"...": 6482, "alisÃ©": 6483, "yal": 6484, "Ġadjust": 6485, "ouch": 6486, "Ġstronger": 6487, "997": 6488, "iday": 6489, "Ġsip": 6490, "ĠVi": 6491, "Ġfought": 6492, "Ġcost": 6493, "ĠMore": 6494, "Ġwrists": 6495, "Ġaching": 6496, "Ġparticularly": 6497, "404": 6498, "sembl": 6499, "Ġrisk": 6500, "otch": 6501, "Louis": 6502, "Ġheading": 6503, "ĠCat": 6504, "180": 6505, "Ġjam": 6506, "Ġchose": 6507, "ĠNar": 6508, "Ġclimat": 6509, "457": 6510, "ĠHa": 6511, "ĠMarie": 6512, "aistlin": 6513, "Ġtrip": 6514, "Ġglow": 6515, "Ġlady": 6516, "853": 6517, "491": 6518, "ĠWhile": 6519, "Ġprevious": 6520, "Ġirrit": 6521, "Ġtoy": 6522, "Ġframe": 6523, "Ġchallen": 6524, "aujourd": 6525, "Ġconserv": 6526, "Ġcham": 6527, "usement": 6528, "Ġdragon": 6529, "ĠPrem": 6530, "696": 6531, "Ġsav": 6532, "isa": 6533, "Ġflowers": 6534, "Ġdestroy": 6535, "Ġhissed": 6536, "ĠprÃ©sente": 6537, "612": 6538, "ĠRos": 6539, "erner": 6540, "idel": 6541, "ika": 6542, "ĠconsidÃ©rÃ©": 6543, "rel": 6544, "Ġmeaning": 6545, "lby": 6546, "Ġshape": 6547, "Ġvide": 6548, "nst": 6549, "Ġfacing": 6550, "Ġsexual": 6551, "Ġsolid": 6552, "Ġquartier": 6553, "695": 6554, "ĠWould": 6555, "illa": 6556, "ĠLucius": 6557, "ĠSeung": 6558, "Ġbadly": 6559, "592": 6560, "Ġtrees": 6561, "Fin": 6562, "Ġeyel": 6563, "Ġspec": 6564, "olfe": 6565, "Ġannoyed": 6566, "Ġpurple": 6567, "ado": 6568, "Ġpruss": 6569, "ĠLille": 6570, "Sur": 6571, "roc": 6572, "ĠcÃ´te": 6573, "atoire": 6574, "725": 6575, "Ġsubt": 6576, "Ġrushed": 6577, "Ġparc": 6578, "Ġtrop": 6579, "Ġhat": 6580, "Italie": 6581, "OU": 6582, "Ġbois": 6583, "ĠdÃ©crit": 6584, "Ġtemple": 6585, "Ġatte": 6586, "Ġidiot": 6587, "ensive": 6588, "Ġperman": 6589, "903": 6590, "Ġcurse": 6591, "Ġpanties": 6592, "916": 6593, "house": 6594, "han": 6595, "Ġhitting": 6596, "ĠNothing": 6597, "ii": 6598, "illet": 6599, "jÃł": 6600, "Ġgorge": 6601, "Ent": 6602, "595": 6603, "716": 6604, "Ġlanded": 6605, "Ġ(),": 6606, "ĠvallÃ©e": 6607, "ĠsystÃ¨me": 6608, "Ġknot": 6609, "Ġsmart": 6610, "795": 6611, "Ġsaison": 6612, "kn": 6613, "Ġremoved": 6614, "fit": 6615, "erland": 6616, "ĠJake": 6617, "Ġtrick": 6618, "Ġwelcome": 6619, "Ġautom": 6620, "Ġvampire": 6621, "Ġwaved": 6622, "Ġinstru": 6623, "Ġjump": 6624, "Ġnearby": 6625, "Ġrempl": 6626, "Ġdirig": 6627, "883": 6628, "Ġconstruction": 6629, "itul": 6630, "ĠNancy": 6631, "anged": 6632, "Ġcream": 6633, "Ġvulner": 6634, "\"\"": 6635, "Ġdigging": 6636, "Ġhigher": 6637, "Ġslides": 6638, "Ġstranger": 6639, "Peter": 6640, "Ġsearching": 6641, "411": 6642, "antique": 6643, "Ġphilosophe": 6644, "497": 6645, "Sp": 6646, "Johann": 6647, "Ġstroked": 6648, "Ġmilit": 6649, "ĠÃ©lev": 6650, "Ġseriously": 6651, "llig": 6652, "Ġmas": 6653, "urielle": 6654, "Ġteen": 6655, "grÃ©": 6656, "Ġcart": 6657, "Ã©on": 6658, "Ġstir": 6659, "ĠHal": 6660, "Wil": 6661, "Our": 6662, "Ġindivid": 6663, "Ġbliss": 6664, "Ġpounding": 6665, "Ġador": 6666, "iments": 6667, "967": 6668, "ĠPotter": 6669, "Ġank": 6670, "Ġclasse": 6671, "umine": 6672, "Ġinvest": 6673, "aÃ¯wan": 6674, "437": 6675, "Ġjours": 6676, "Sch": 6677, "nie": 6678, "Ġmember": 6679, "870": 6680, "Ġglare": 6681, "ĠFrank": 6682, "Ġbitter": 6683, "ĠRose": 6684, "Ġ2010": 6685, "oine": 6686, "Ġfrag": 6687, "ĠRoyaume": 6688, "Ġthrown": 6689, "640": 6690, "620": 6691, "862": 6692, "ĠrÃ©c": 6693, "Ġnud": 6694, "Ġbigger": 6695, "ĠSab": 6696, "Ġreturning": 6697, "Ġdisappeared": 6698, "Ġporte": 6699, "ĠChristian": 6700, "Ġclaim": 6701, "Ġ2009": 6702, "Ġretour": 6703, "Ġyelled": 6704, "ĠSy": 6705, "683": 6706, "Ġstroke": 6707, "Ġlangu": 6708, "616": 6709, "421": 6710, "mon": 6711, "662": 6712, "Ġprincipaux": 6713, "Ġgare": 6714, "Ġshadow": 6715, "Ġgrav": 6716, "ĠAngeles": 6717, "Ġalbum": 6718, "865": 6719, "Ġ9": 6720, "ĠWednesday": 6721, "ĠWhere": 6722, "inf": 6723, "ĠAugust": 6724, "Ġblame": 6725, "ĠStr": 6726, "Ġspat": 6727, "131005": 6728, "Ġkey": 6729, "Ġcet": 6730, "Ġconvin": 6731, "Ġspreading": 6732, "Ġshel": 6733, "she": 6734, "Ġautour": 6735, "ographique": 6736, "Ġing": 6737, "lor": 6738, "Ġpray": 6739, "Ġmeille": 6740, "ainte": 6741, "oqu": 6742, "chako": 6743, "ieur": 6744, "Ġhyd": 6745, "ĠCanada": 6746, "Ġexiste": 6747, "188": 6748, "burg": 6749, "Ġcharge": 6750, "Ġsatisfied": 6751, "ĠeuropÃ©enne": 6752, "ĠRed": 6753, "867": 6754, "476": 6755, "Ġotherwise": 6756, "Ġamused": 6757, "ĠConnor": 6758, "Ġcurt": 6759, "441": 6760, "Ġvent": 6761, "Ġrib": 6762, "Cette": 6763, "ngh": 6764, "Ġcig": 6765, "Ġcollaps": 6766, "ĠGrande": 6767, "aye": 6768, "angs": 6769, "252": 6770, "Autriche": 6771, "Ġnationale": 6772, "Ġ2008": 6773, "ĠEng": 6774, "Wurtemberg": 6775, "Sure": 6776, "Ġexcuse": 6777, "Ġearth": 6778, "athered": 6779, "885": 6780, "ĠTre": 6781, "xic": 6782, "Ġfield": 6783, "1522": 6784, "ĠdÃ©jÃł": 6785, "ĠHank": 6786, "Ġanticipation": 6787, "Ġcourt": 6788, "hus": 6789, "Ġcries": 6790, "Ġbalance": 6791, "yu": 6792, "uter": 6793, "Ġscra": 6794, "Ġstyle": 6795, "Ġexpress": 6796, "Ġunsure": 6797, "pless": 6798, "Ġcatholique": 6799, "ĠDavid": 6800, "474": 6801, "Ã§on": 6802, "ĠBro": 6803, "Ġhood": 6804, "ĠactivitÃ©": 6805, "Union": 6806, "410": 6807, "odor": 6808, "Ġintitul": 6809, "Ġsir": 6810, "Ġdut": 6811, "762": 6812, "Ġsenses": 6813, "401": 6814, "Ġdonne": 6815, "Ġdistracted": 6816, "Ġreb": 6817, "ĠcÃ©lÃ¨bre": 6818, "Ġdescri": 6819, "Ġmic": 6820, "823": 6821, "ĠFrom": 6822, "osaurus": 6823, "Ġstore": 6824, "ĠmaniÃ¨re": 6825, "646": 6826, "ĠKyle": 6827, "Ġpregn": 6828, "Ġremar": 6829, "Ġsciences": 6830, "leg": 6831, "do": 6832, "Ġhoney": 6833, "Ġfal": 6834, "Ġdrinking": 6835, "Ġaurait": 6836, "494": 6837, "587": 6838, "ĠZe": 6839, "Ġtransf": 6840, "Ġram": 6841, "Ġtightened": 6842, "Ġdispers": 6843, "Car": 6844, "Hong": 6845, "ached": 6846, "Ã¼r": 6847, "lebr": 6848, "askier": 6849, "Ġmale": 6850, "ench": 6851, "ĠmÃ©da": 6852, "Ġbast": 6853, "Ġbub": 6854, "ĠSaxe": 6855, "ĠcrÃ©Ã©": 6856, "ĠDimitri": 6857, "Thanks": 6858, "ĠHall": 6859, "Ã©cole": 6860, "aping": 6861, "Ġmarks": 6862, "Ġfailed": 6863, "lling": 6864, "under": 6865, "Ã©an": 6866, "Ġbourg": 6867, "Ġtease": 6868, "ency": 6869, "Ġjoke": 6870, "141": 6871, "Ġnervously": 6872, "ĠNor": 6873, "hold": 6874, "1060": 6875, "Ã¼s": 6876, "ĠBrun": 6877, "Ġstruggling": 6878, "Ġdriving": 6879, "Ġdrawn": 6880, "Ã¨le": 6881, "ommes": 6882, "issant": 6883, "Ġdestin": 6884, "Ġtrailed": 6885, "Uh": 6886, "Ġlibr": 6887, "loe": 6888, "Ġwiz": 6889, "ella": 6890, "Ġfat": 6891, "rik": 6892, "Ġrefused": 6893, "Ġnumb": 6894, "Ġupper": 6895, "zig": 6896, "ĠXiao": 6897, "Ġchaque": 6898, "Ġmouvement": 6899, "upart": 6900, "Ġplupart": 6901, "897": 6902, "ðĿĺ": 6903, "Ġincredibly": 6904, "848": 6905, "rying": 6906, "Ġknuck": 6907, "Ã¶nig": 6908, "Ġflu": 6909, "environ": 6910, "Ġblond": 6911, "936": 6912, "ĠrÃ©gions": 6913, "Ġlimit": 6914, "Ġflush": 6915, "Ġcop": 6916, "Ġloss": 6917, "Ġlifts": 6918, "Ġclothing": 6919, "Ġgul": 6920, "Ġpride": 6921, "Iz": 6922, "Bas": 6923, "pet": 6924, "ĠMir": 6925, "Ġsite": 6926, "ĠKakashi": 6927, "817": 6928, "ĠMark": 6929, "ĠMoyen": 6930, "Ġremain": 6931, "Ġtugging": 6932, "Ġunw": 6933, "ĠJoseph": 6934, "atin": 6935, "Ġclimax": 6936, "iennent": 6937, "182": 6938, "700": 6939, "Ġacting": 6940, "Ġdrinks": 6941, "Ġnodding": 6942, "Ġva": 6943, "Ġpuls": 6944, "Ġthrusting": 6945, "antage": 6946, "Ġsurely": 6947, "mas": 6948, "embre": 6949, "Ġmurmurs": 6950, "Ġexam": 6951, "Ġtied": 6952, "ĠBern": 6953, "860": 6954, "ĠcrÃ©ation": 6955, "Ġerection": 6956, "Ġswear": 6957, "ĠJihoon": 6958, "bus": 6959, "Ġmoyenne": 6960, "Ġstage": 6961, "Ġhumans": 6962, "exique": 6963, "929": 6964, "Ġfists": 6965, "Ġdust": 6966, "rai": 6967, "Ġpotent": 6968, "Ġast": 6969, "Ġniveau": 6970, "Ġignored": 6971, "gement": 6972, "Ġknowledge": 6973, "999": 6974, "haus": 6975, "stadt": 6976, "ĠChe": 6977, "Ġessent": 6978, "ER": 6979, "aired": 6980, "Ġembarrassment": 6981, "919": 6982, "Ġstretch": 6983, "Ġtugged": 6984, "regist": 6985, "Ġ2000": 6986, "Ġunif": 6987, "Ġbloody": 6988, "inda": 6989, "926": 6990, "lise": 6991, "Ġthroughout": 6992, "agi": 6993, "Te": 6994, "Ġdamp": 6995, "850": 6996, "Ġkicked": 6997, "956": 6998, "1711": 6999, "seud": 7000, "Ġconfident": 7001, "Ġdisgust": 7002, "Ġmai": 7003, "ĠBaviÃ¨re": 7004, "ĠGet": 7005, "Ġnowhere": 7006, "223": 7007, "Ġleading": 7008, "ĠSure": 7009, "indre": 7010, "Ã©rÃ©e": 7011, "Ġpropri": 7012, "159": 7013, "lt": 7014, "enny": 7015, "Ġshaky": 7016, "805": 7017, "Ġjoueur": 7018, "Ġprison": 7019, "Ġdetermined": 7020, "Ġgesture": 7021, "ĠfrÃ¨re": 7022, "Ġrespons": 7023, "Ġdelicate": 7024, "Ġnuzz": 7025, "822": 7026, "Ġdecl": 7027, "roit": 7028, "Would": 7029, "Ġsquir": 7030, "807": 7031, "Ġtandis": 7032, "ĠÅ": 7033, "Ġmuscle": 7034, "Ġswift": 7035, "ĠmÃ©c": 7036, "ello": 7037, "Ġstepping": 7038, "ĠbÃ¢t": 7039, "ĠcÃ´t": 7040, "Ġtouches": 7041, "Ġrapport": 7042, "cer": 7043, "Ġcurios": 7044, "Ĥge": 7045, "neur": 7046, "ceed": 7047, "Ġgrinning": 7048, "Ġstudents": 7049, "orme": 7050, "ĠTra": 7051, "186": 7052, "Ġgau": 7053, "glom": 7054, "ension": 7055, "Jungkook": 7056, "Ġcapable": 7057, "Ġflying": 7058, "796": 7059, "ÃŁ": 7060, "ĠcÃ´tÃ©": 7061, "ĠmusÃ©e": 7062, "onomie": 7063, "aus": 7064, "Ġgrave": 7065, "943": 7066, "ĠLupin": 7067, "eled": 7068, "ĠSee": 7069, "Ġfier": 7070, "rick": 7071, "Ġprogr": 7072, "Ġdetails": 7073, "ustom": 7074, "ĠJim": 7075, "Kat": 7076, "Ġtransform": 7077, "Ġkilom": 7078, "Ġplanned": 7079, "706": 7080, "Ġeffet": 7081, "Ġnights": 7082, "cean": 7083, "ĠCom": 7084, "ĠdÃ©finit": 7085, "Ġdefe": 7086, "Ġcatches": 7087, "Ġdelicious": 7088, "expl": 7089, "chestre": 7090, "Ġ2014": 7091, "Christ": 7092, "inking": 7093, "ĠJeongguk": 7094, "atch": 7095, "lic": 7096, "702": 7097, "Ġrencontre": 7098, "Ġdeme": 7099, "Get": 7100, "Ġthrill": 7101, "ribut": 7102, "ĠPorsche": 7103, "ĠSw": 7104, "ĠMost": 7105, "umes": 7106, "raine": 7107, "ilÃ©": 7108, "Ġwooden": 7109, "Ġdocument": 7110, "Ġwhined": 7111, "Ġwiped": 7112, "Ġappreciate": 7113, "cell": 7114, "Ġescaped": 7115, "ĠHad": 7116, "tÃ©rie": 7117, "ylv": 7118, "996": 7119, "Ġtim": 7120, "field": 7121, "ovie": 7122, "ĠCheng": 7123, "Ġafin": 7124, "Ġcit": 7125, "ĠthÃ©orie": 7126, "Ġappara": 7127, "Ġlistened": 7128, "arse": 7129, "Ġeverywhere": 7130, "beat": 7131, "Ã©tiques": 7132, "Ġlick": 7133, "ĠpubliÃ©": 7134, "enz": 7135, "Ġdrown": 7136, "ĠFred": 7137, "Ġbeating": 7138, "estival": 7139, "cier": 7140, "Ġgrad": 7141, "760": 7142, "Ġbask": 7143, "Ġbones": 7144, "asons": 7145, "chelle": 7146, "ĠRud": 7147, "Ġinteresting": 7148, "oot": 7149, "ĠPri": 7150, "114": 7151, "Plus": 7152, "ĠdiffÃ©rentes": 7153, "839": 7154, "ĠlittÃ©rature": 7155, "ĠKorra": 7156, "908": 7157, "ĠPrusse": 7158, "ĠMary": 7159, "ĠBob": 7160, "Ġpolice": 7161, "Ġcompt": 7162, "ĠSuperman": 7163, "Ġsea": 7164, "Ġcudd": 7165, "ĠKinn": 7166, "Ã¨ge": 7167, "Ġnoises": 7168, "ĠRod": 7169, "Ġcontinent": 7170, "ĠAutriche": 7171, "Ġparticulier": 7172, "ĩÌ": 7173, "elet": 7174, "Ġgar": 7175, "Ġsentence": 7176, "Ġtotally": 7177, "697": 7178, "Ġthous": 7179, "Ġblushed": 7180, "Ġveins": 7181, "Ġwitch": 7182, "ĠAstarion": 7183, "Ġgolfe": 7184, "Ġrurale": 7185, "olk": 7186, "pron": 7187, "Ġreport": 7188, "iance": 7189, "fried": 7190, "ĠAtsumu": 7191, "Ġplenty": 7192, "illed": 7193, "brey": 7194, "187": 7195, "Ġcurrently": 7196, "Ġcommon": 7197, "Ġmarqu": 7198, "stand": 7199, "fortunately": 7200, "ĠWooyoung": 7201, "Ġexclaimed": 7202, "olin": 7203, "Ġsake": 7204, "ĠnÃ©erland": 7205, "ĠMaria": 7206, "owly": 7207, "abeth": 7208, "zed": 7209, "rov": 7210, "454": 7211, "1325": 7212, "Ġsovi": 7213, "Ġchoose": 7214, "aze": 7215, "ĠPor": 7216, "Ġtwenty": 7217, "Ġaim": 7218, "Ġsaved": 7219, "Ġfixed": 7220, "585": 7221, "Ġrise": 7222, "sely": 7223, "Ġclimb": 7224, "Ġplanning": 7225, "Ġrelieved": 7226, "iety": 7227, "Ġmagn": 7228, "Ġswell": 7229, "Ġmembers": 7230, "elda": 7231, "893": 7232, "kin": 7233, "ĠdonnÃ©": 7234, "Ġvibr": 7235, "Ġgorgeous": 7236, "joong": 7237, "Ġfont": 7238, "Ġbuy": 7239, "204": 7240, "Ġtoes": 7241, "ĠFre": 7242, "inaire": 7243, "iva": 7244, "663": 7245, "952": 7246, "ĠFrancfort": 7247, "ivitÃ©": 7248, "azz": 7249, "ĠFri": 7250, "Ġdirige": 7251, "Ġvois": 7252, "view": 7253, "amb": 7254, "Ġheight": 7255, "Ġnap": 7256, "Ġdart": 7257, "ACE": 7258, "Ġadop": 7259, "773": 7260, "ocol": 7261, "xim": 7262, "Ġborn": 7263, "481": 7264, "Inst": 7265, "Ġproc": 7266, "anda": 7267, "oren": 7268, "Ġlatin": 7269, "Ġbirthday": 7270, "Karl": 7271, "872": 7272, "Ġhost": 7273, "ubb": 7274, "Tell": 7275, "Ġdarling": 7276, "ĠdÃ©n": 7277, "este": 7278, "ilton": 7279, "iser": 7280, "Ġhistorien": 7281, "Ġbeast": 7282, "Ġ\"\"": 7283, "Ġbetray": 7284, "974": 7285, "Ġdistract": 7286, "San": 7287, "iley": 7288, "ĠGeralt": 7289, "698": 7290, "1315": 7291, "Ġletter": 7292, "AAB": 7293, "oty": 7294, "Ġdeny": 7295, "Ġglancing": 7296, "Ġgut": 7297, "ĠBre": 7298, "Ġwitness": 7299, "Afrique": 7300, "131": 7301, "UniversitÃ©": 7302, "Ġnest": 7303, "Ġdumb": 7304, "Ġrealised": 7305, "ĠBÃ¢": 7306, "ĠdiffÃ©rents": 7307, "itiÃ©": 7308, "ishment": 7309, "Ġjeun": 7310, "Ġknocked": 7311, "Ġaccepted": 7312, "crit": 7313, "Ġglared": 7314, "902": 7315, "ĠLucifer": 7316, "BAE": 7317, "486": 7318, "Ġseemingly": 7319, "924": 7320, "Ġcelebr": 7321, "Ã©ments": 7322, "Ġcovers": 7323, "raÃ®": 7324, "comp": 7325, "lymp": 7326, "Ġstated": 7327, "184": 7328, "Ġhyp": 7329, "Ġoffering": 7330, "insule": 7331, "Ġshifting": 7332, "lder": 7333, "Ġmistake": 7334, "Ġlibrary": 7335, "Ġbuzz": 7336, "871": 7337, "958": 7338, "Ġrage": 7339, "ĠMur": 7340, "Ġorganis": 7341, "Ġoverwhelming": 7342, "Ġkick": 7343, "859": 7344, "Ġkinda": 7345, "Ġtransport": 7346, "Ġslammed": 7347, "Ġpulse": 7348, "Ġwhine": 7349, "309": 7350, "ĠPierre": 7351, "Ġpointing": 7352, "ľÌ": 7353, "ĠGreen": 7354, "Ġridiculous": 7355, "hin": 7356, "Ġabrupt": 7357, "Ġwindows": 7358, "elv": 7359, "Ġgrins": 7360, "Ġscow": 7361, "ext": 7362, "ĠAlbert": 7363, "675": 7364, "ĠVictoria": 7365, "Ġangle": 7366, "Ġstruggled": 7367, "Ġsummer": 7368, "vo": 7369, "fuck": 7370, "ACC": 7371, "ĠEdward": 7372, "ĠWhich": 7373, "ĠDespite": 7374, "Ġflex": 7375, "Ġmeal": 7376, "Ġignoring": 7377, "ĠEmma": 7378, "838": 7379, "isch": 7380, "Ġasshole": 7381, "Ġpurs": 7382, "Ġ1990": 7383, "Ġsettle": 7384, "Ġhabitat": 7385, "827": 7386, "Ġskirt": 7387, "Ġsexy": 7388, "Ġindeed": 7389, "Ġstut": 7390, "ĠSeungmin": 7391, "Ġhums": 7392, "Ġends": 7393, "Ġcentrale": 7394, "ĤÌ": 7395, "ĠJace": 7396, "Ġdyn": 7397, "Sam": 7398, "193": 7399, "Ġstrokes": 7400, "Ġliquid": 7401, "Ġfan": 7402, "Ġtrous": 7403, "Ġwolf": 7404, "atherine": 7405, "Ġlimbs": 7406, "Ġbitch": 7407, "Ġboss": 7408, "Ġinclud": 7409, "aque": 7410, "onscious": 7411, "ĠcomposÃ©": 7412, "BAB": 7413, "Ġrand": 7414, "ĠAzriel": 7415, "Ġmentioned": 7416, "Ġfolds": 7417, "Ġdan": 7418, "Ġpractice": 7419, "ĠactivitÃ©s": 7420, "ĨÌ": 7421, "Mer": 7422, "Ġbreathes": 7423, "ĠUs": 7424, "Ġbreaks": 7425, "Ġgrandes": 7426, "596": 7427, "Ġfaisant": 7428, "urÃ©": 7429, "Ġbrun": 7430, "Ġthrobbing": 7431, "ĠÃĤge": 7432, "Ġouvr": 7433, "gt": 7434, "aro": 7435, "Ġtch": 7436, "201": 7437, "Ġtempt": 7438, "ĠOchako": 7439, "Ġboots": 7440, "ĠBian": 7441, "ĠCap": 7442, "Ġtravaux": 7443, "Ġbuilt": 7444, "aqu": 7445, "Ġproduit": 7446, "cknow": 7447, "igen": 7448, "Ġhotel": 7449, "Ġsore": 7450, "Ġemp": 7451, "ĠCalifornie": 7452, "hyd": 7453, "iring": 7454, "Ġinstant": 7455, "ocrate": 7456, "Ġvillages": 7457, "ĠRichard": 7458, "ĠtroisiÃ¨me": 7459, "ĠCassidy": 7460, "Ġchoked": 7461, "ĠÅĵuvres": 7462, "Ġhandsome": 7463, "837": 7464, "707": 7465, "Ã«l": 7466, "ilty": 7467, "aude": 7468, "akin": 7469, "Ġpleasant": 7470, "Ġexer": 7471, "Ġwonders": 7472, "AAD": 7473, "Ġrooms": 7474, "Ġbackwards": 7475, "Ġbrothers": 7476, "oku": 7477, "181": 7478, "ĠSky": 7479, "Ġraises": 7480, "ĠComp": 7481, "glas": 7482, "ĠJiang": 7483, "ĠIm": 7484, "istic": 7485, "Ġspeaks": 7486, "issent": 7487, "ground": 7488, "Ġmater": 7489, "Friedrich": 7490, "Ã´ne": 7491, "Ġanxiety": 7492, "ĠFerdinand": 7493, "Ġ1980": 7494, "Ġhopes": 7495, "ĠBart": 7496, "Ġspirit": 7497, "ĬÌ": 7498, "agement": 7499, "Ġhappiness": 7500, "ĠrÃ©gul": 7501, "Ġvue": 7502, "ĠBoth": 7503, "677": 7504, "AAF": 7505, "gypte": 7506, "riage": 7507, "ombard": 7508, "Ġtorso": 7509, "mate": 7510, "erl": 7511, "Ġpred": 7512, "Durant": 7513, "Ġacknow": 7514, "Ġlube": 7515, "Ġeu": 7516, "ionale": 7517, "Ġfurrowed": 7518, "uka": 7519, "Ġrealizes": 7520, "167": 7521, "Ġpseud": 7522, "Ġrot": 7523, "pring": 7524, "317": 7525, "693": 7526, "Ġmuffled": 7527, "Ġens": 7528, "cil": 7529, "uil": 7530, "Ġdeli": 7531, "705": 7532, "ulaire": 7533, "İÌ": 7534, "Ġpizza": 7535, "Ġgle": 7536, "ettes": 7537, "Ġprincipal": 7538, "Ġsuggested": 7539, "dom": 7540, "lÃ©": 7541, "Ġcarrying": 7542, "Ġ25": 7543, "yes": 7544, "Fine": 7545, "agg": 7546, "414": 7547, "Ġmi": 7548, "hand": 7549, "Have": 7550, "ĠNeckar": 7551, "ĠÃ©vol": 7552, "ĲÌ": 7553, "Ġ[[": 7554, "Ġcuriosity": 7555, "ĠSoonyoung": 7556, "iest": 7557, "804": 7558, "ĠJeongin": 7559, "ĠBruce": 7560, "teen": 7561, "Ġsplit": 7562, "Ġcous": 7563, "ĠNations": 7564, "Dream": 7565, "ĭÌ": 7566, "2019": 7567, "Ġgoodby": 7568, "625": 7569, "Ìµ": 7570, "ete": 7571, "uries": 7572, "ĠYang": 7573, "uellement": 7574, "ĺÌ": 7575, "BAF": 7576, "cker": 7577, "ommÃ©e": 7578, "Ġdying": 7579, "ĠWilbur": 7580, "ļÌ": 7581, "ĠGab": 7582, "Ġdisting": 7583, "alta": 7584, "umin": 7585, "igue": 7586, "Ġjan": 7587, "oteo": 7588, "Ġnarrowed": 7589, "722": 7590, "586": 7591, "Ġunless": 7592, "ohol": 7593, "Ġdevenu": 7594, "leur": 7595, "ĠToni": 7596, "ĠBar": 7597, "ĠPark": 7598, "Ġconnection": 7599, "Ġnotes": 7600, "Ġpretend": 7601, "ĠScar": 7602, "912": 7603, "hony": 7604, "ĪÌ": 7605, "Ġrespon": 7606, "Carl": 7607, "okes": 7608, "Ġdoorway": 7609, "Ġshar": 7610, "nder": 7611, "195": 7612, "Ġ2006": 7613, "ĠparticuliÃ¨rement": 7614, "Ġ11": 7615, "ylan": 7616, "Ġswallow": 7617, "Entre": 7618, "Ġash": 7619, "Ġattract": 7620, "įÌ": 7621, "ĠChi": 7622, "Ġsoothing": 7623, "dered": 7624, "Ġhelpless": 7625, "250": 7626, "ĠNov": 7627, "BBE": 7628, "Ì¶": 7629, "ĠRick": 7630, "ĠVill": 7631, "Ġgrands": 7632, "Ġwraps": 7633, "Ã¼ssel": 7634, "BBD": 7635, "963": 7636, "Ġnecessary": 7637, "Ġheels": 7638, "Ġabsol": 7639, "ĠpÃ©ninsule": 7640, "ĠYoung": 7641, "Ġscoffed": 7642, "Ġunp": 7643, "ĠKÃ¶nig": 7644, "757": 7645, "Ġshrugs": 7646, "Taehyung": 7647, "Ġbelieved": 7648, "Ġconfirm": 7649, "termin": 7650, "Ġauteur": 7651, "See": 7652, "Ġarched": 7653, "Ġteacher": 7654, "iktor": 7655, "atively": 7656, "Ġmaint": 7657, "ĠRa": 7658, "ĠdÃ©signe": 7659, "Ġnu": 7660, "Ġinsisted": 7661, "Ġtie": 7662, "hyun": 7663, "BBC": 7664, "olo": 7665, "ĳÌ": 7666, "isingly": 7667, "Ġbird": 7668, "rah": 7669, "Ġcadre": 7670, "Ġrecherche": 7671, "ĠMig": 7672, "ĠLou": 7673, "rences": 7674, "Ġdoll": 7675, "Ġbroad": 7676, "Ġimpat": 7677, "Ġmarque": 7678, "īÌ": 7679, "ĠTH": 7680, "ĠOliver": 7681, "Ġalarm": 7682, "aching": 7683, "Chris": 7684, "717": 7685, "atives": 7686, "emy": 7687, "ember": 7688, "957": 7689, "Ġbon": 7690, "ogue": 7691, "Ġcul": 7692, "Ġunex": 7693, "Ġamusement": 7694, "ĠMiles": 7695, "BAD": 7696, "ĠdispersÃ©": 7697, "Ġcomte": 7698, "Ġvisible": 7699, "Ġswir": 7700, "Ġrestr": 7701, "ĠMerlin": 7702, "Ġissue": 7703, "ģÌ": 7704, "Ġcaut": 7705, "ĠBrand": 7706, "101": 7707, "Ġum": 7708, "673": 7709, "cor": 7710, "Ì·": 7711, "ĠChang": 7712, "1230": 7713, "ĠraÃ¯": 7714, "886": 7715, "ĠmatÃ©ri": 7716, "Ġcondition": 7717, "Ġgathered": 7718, "Ġenregist": 7719, "Ġbassin": 7720, "Ġtips": 7721, "vention": 7722, "ĠJes": 7723, "ĠEm": 7724, "Ġgener": 7725, "Ġremembers": 7726, "ĠGood": 7727, "can": 7728, "ĠAsami": 7729, "iden": 7730, "Ġcursed": 7731, "785": 7732, "vern": 7733, "Ġcompar": 7734, "Ġconscious": 7735, "Ì¸": 7736, "inz": 7737, "Ġintimate": 7738, "Ġcigaret": 7739, "Ġni": 7740, "763": 7741, "Ġcritique": 7742, "urse": 7743, "Ġsignific": 7744, "Ġautrichienne": 7745, "Ġvoit": 7746, "Ġleader": 7747, "mely": 7748, "ĠdÃ©cÃ©dÃ©": 7749, "ĠJung": 7750, "ypt": 7751, "åį": 7752, "Ġaltern": 7753, "Ã©nÃ©": 7754, "ram": 7755, "Ġba": 7756, "729": 7757, "Ġtotal": 7758, "By": 7759, "Ġhurts": 7760, "ĶÌ": 7761, "Ġemer": 7762, "Ġcomforting": 7763, "ĠspÃ©ci": 7764, "æ°": 7765, "987": 7766, "ĠcommunautÃ©": 7767, "Ġmagaz": 7768, "Ġviolence": 7769, "ĠPhilippines": 7770, "ħÌ": 7771, "ĠRaistlin": 7772, "Ġ2012": 7773, "Charl": 7774, "AAE": 7775, "âĻ": 7776, "Ġä¸Ń": 7777, "ĠRy": 7778, "158": 7779, "Ġactual": 7780, "æ°ĳ": 7781, "ilities": 7782, "indust": 7783, "Nothing": 7784, "Ġordered": 7785, "apes": 7786, "692": 7787, "Ġsin": 7788, "Ġseul": 7789, "Ġ1971": 7790, "xyd": 7791, "esc": 7792, "Ġsnap": 7793, "198": 7794, "660": 7795, "Ġprompt": 7796, "ĠDen": 7797, "Still": 7798, "ĠJun": 7799, "agger": 7800, "wed": 7801, "Ġuniver": 7802, "Ġcurling": 7803, "Ġjournaliste": 7804, "ford": 7805, "Ġfurent": 7806, "Ġneg": 7807, "Ġsofa": 7808, "Ġforte": 7809, "men": 7810, "ķÌ": 7811, "ĠCome": 7812, "Ġlorsque": 7813, "Ġmerely": 7814, "Ġsuppl": 7815, "Ke": 7816, "Ġbud": 7817, "ormais": 7818, "Ġsafety": 7819, "Ag": 7820, "Ġstress": 7821, "Ã¼n": 7822, "onneur": 7823, "920": 7824, "ĢÌ": 7825, "Ġapologize": 7826, "Ġgrass": 7827, "730": 7828, "born": 7829, "Ġfolded": 7830, "irgin": 7831, "allemand": 7832, "ĥÌ": 7833, "ĠRaven": 7834, "ĠAh": 7835, "ĠBet": 7836, "Ġsets": 7837, "ĵÌ": 7838, "amas": 7839, "Ġinstr": 7840, "raire": 7841, "itter": 7842, "opper": 7843, "Ġlingering": 7844, "itham": 7845, "Ġgotta": 7846, "ĽÌ": 7847, "ronome": 7848, "vembre": 7849, "984": 7850, "Ġability": 7851, "Ġstretching": 7852, "ĹÌ": 7853, "Ġadministrative": 7854, "Ġcamera": 7855, "ĠMc": 7856, "Ġfroze": 7857, "oves": 7858, "Ġsilly": 7859, "edy": 7860, "ĠfrÃ©qu": 7861, "Ġinches": 7862, "ĠApp": 7863, "honneur": 7864, "Ġsuperficie": 7865, "Ġformes": 7866, "Ġmental": 7867, "Ġalcohol": 7868, "nel": 7869, "128499": 7870, "ĠlittÃ©ra": 7871, "zi": 7872, "Ġcommerce": 7873, "Ġhits": 7874, "Ġracing": 7875, "Ġpaid": 7876, "urity": 7877, "ĠTs": 7878, "ĠUt": 7879, "ĠÃ©tr": 7880, "793": 7881, "Ġbeauty": 7882, "Pendant": 7883, "Ġheartbeat": 7884, "ĠAlfred": 7885, "ingt": 7886, "hou": 7887, "ĮÌ": 7888, "Ġdeb": 7889, "Ġtask": 7890, "767": 7891, "Ġdomaine": 7892, "Lucifer": 7893, "Ġprior": 7894, "ĠJaskier": 7895, "ĠKn": 7896, "Ġwhimpered": 7897, "Ġjanvier": 7898, "Ġhealing": 7899, "aka": 7900, "Ġmarch": 7901, "clam": 7902, "istiques": 7903, "Ġtossed": 7904, "Com": 7905, "Ã©pendance": 7906, "Ġ1945": 7907, "Ġshorts": 7908, "Ġgrowl": 7909, "Ġarrive": 7910, "Ġitalien": 7911, "583": 7912, "Ġreasons": 7913, "Ġsway": 7914, "923": 7915, "ĠMil": 7916, "Ġprussien": 7917, "Ġpoll": 7918, "Ġdistinct": 7919, "ĠTerre": 7920, "Ġhonor": 7921, "ĴÌ": 7922, "ko": 7923, "ĠfondÃ©": 7924, "Ġseptembre": 7925, "Ġdisbel": 7926, "san": 7927, "Ġelev": 7928, "Ġflew": 7929, "Ġmaterial": 7930, "osh": 7931, "Ġraise": 7932, "ollen": 7933, "Ġislam": 7934, "ĠXichen": 7935, "architect": 7936, "ĠÃ©poque": 7937, "960": 7938, "anned": 7939, "889": 7940, "Ġjuive": 7941, "Ġroof": 7942, "176": 7943, "Ġpersonnes": 7944, "bot": 7945, "111": 7946, "ÍĿÌ": 7947, "inted": 7948, "Ġproduct": 7949, "steps": 7950, "Ġcircle": 7951, "Ġ1960": 7952, "Ġquir": 7953, "Ġorange": 7954, "BFF": 7955, "ventually": 7956, "Ġlif": 7957, "ÍĦÌ": 7958, "Ġsumm": 7959, "593": 7960, "ĠJason": 7961, "oses": 7962, "uming": 7963, "ĠYet": 7964, "Ġinnocent": 7965, "Ġterres": 7966, "Ġpile": 7967, "issa": 7968, "ĠYurielle": 7969, "Ġsurrounded": 7970, "arer": 7971, "ocrat": 7972, "Ġiniti": 7973, "Ġproche": 7974, "ali": 7975, "AT": 7976, "gard": 7977, "Ġdur": 7978, "Ġgal": 7979, "umbs": 7980, "Ġfeu": 7981, "Ġconfidence": 7982, "Ġarabe": 7983, "Ġbour": 7984, "Ġcu": 7985, "Ġbotan": 7986, "aveh": 7987, "Ġphilosophie": 7988, "ĠCastiel": 7989, "Ã©mo": 7990, "Ãªche": 7991, "Ġcontinuing": 7992, "Ġshrug": 7993, "ĠWilliam": 7994, "737": 7995, "Ġtrapped": 7996, "Ġpersonnage": 7997, "Ġintent": 7998, "970": 7999, "Ġunies": 8000, "868": 8001, "973": 8002, "Ġguilty": 8003, "Im": 8004, "edly": 8005, "504": 8006, "ĠRight": 8007, "953": 8008, "Ġurbaine": 8009, "organ": 8010, "BAC": 8011, "Ġmoderne": 8012, "Ġ2011": 8013, "Ġsystem": 8014, "Ġtyp": 8015, "ĠTimoteo": 8016, "637": 8017, "Ã¶r": 8018, "orp": 8019, "Ġtar": 8020, "opes": 8021, "Ãīgypte": 8022, "Ġfrustrated": 8023, "ittle": 8024, "Ġterre": 8025, "Something": 8026, "Ġstab": 8027, "Ġradio": 8028, "vey": 8029, "Ġec": 8030, "ĠMina": 8031, "Ġpassage": 8032, "623": 8033, "Ġdevint": 8034, "Ġrattach": 8035, "âĢĵ\"": 8036, "ĠmÃ©tropolit": 8037, "ĠBÃ¢le": 8038, "Ġextremely": 8039, "Ã©rid": 8040, "łÌ": 8041, "Ġcorners": 8042, "Ġintention": 8043, "Ġsera": 8044, "andre": 8045, "onnement": 8046, "Ġras": 8047, "Ġwhose": 8048, "lad": 8049, "ĠraÃ¯on": 8050, "Ġinvolved": 8051, "hÅį": 8052, "Ġsmug": 8053, "ril": 8054, "Ġlibre": 8055, "733": 8056, "Ġfollows": 8057, "Ġcruel": 8058, "AAC": 8059, "anch": 8060, "itue": 8061, "ĠÃ©m": 8062, "Ġdoit": 8063, "Ġshifts": 8064, "porte": 8065, "980": 8066, "Ġdistant": 8067, "Ġstories": 8068, "Ġelectric": 8069, "Ġbasket": 8070, "ech": 8071, "Ġstruck": 8072, "Ġprincipales": 8073, "ĸÌ": 8074, "Ġfif": 8075, "Ã©dÃ©ric": 8076, "shine": 8077, "Ġgiggle": 8078, "aitlyn": 8079, "aska": 8080, "Ġknuckles": 8081, "Ġtrousers": 8082, "dÃ©m": 8083, "toine": 8084, "enger": 8085, "ouche": 8086, "Ġhorror": 8087, "Ġroughly": 8088, "Ġly": 8089, "jan": 8090, "Here": 8091, "Lu": 8092, "Ġprofond": 8093, "Ã©cut": 8094, "Ġprost": 8095, "Ġparticipe": 8096, "998": 8097, "Ġbegged": 8098, "Ġrandom": 8099, "xte": 8100, "enf": 8101, "Ġnovembre": 8102, "ugou": 8103, "cription": 8104, "Ġjamais": 8105, "Ġwashed": 8106, "ophy": 8107, "Ġtits": 8108, "Ġobten": 8109, "ĠNicky": 8110, "Sir": 8111, "Ġprotection": 8112, "Ġgrinding": 8113, "wing": 8114, "1014": 8115, "ĠkilomÃ¨tres": 8116, "Ġswim": 8117, "752": 8118, "dy": 8119, "ĠmÃ¨tres": 8120, "Ġripped": 8121, "Ġreconn": 8122, "831": 8123, "spagne": 8124, "Ġswallows": 8125, "aptain": 8126, "icy": 8127, "877": 8128, "ĠNik": 8129, "Ġattrib": 8130, "Ġsounding": 8131, "Ġclaws": 8132, "kered": 8133, "Ġ2004": 8134, "175": 8135, "Ã©quipe": 8136, "Ġmillion": 8137, "ĠRhe": 8138, "619": 8139, "Ġchemin": 8140, "ĠSund": 8141, "cia": 8142, "Ġassumed": 8143, "753": 8144, "Ġstern": 8145, "Ġtwitch": 8146, "Ġexhaust": 8147, "Ã¼sseldorf": 8148, "Ì´": 8149, "Ġcastle": 8150, "oly": 8151, "ĠLena": 8152, "Ġchecked": 8153, "714": 8154, "605": 8155, "ĠnommÃ©e": 8156, "Ġstructure": 8157, "Ġadult": 8158, "Å«": 8159, "Ġsed": 8160, "Ġinsist": 8161, "503": 8162, "Ġpolitiques": 8163, "Ġextr": 8164, "industrie": 8165, "pereur": 8166, "Ġnormally": 8167, "James": 8168, "Ġeight": 8169, "172": 8170, "985": 8171, "731": 8172, "comes": 8173, "221": 8174, "179": 8175, "Ġlon": 8176, "Ġhist": 8177, "618": 8178, "Ġunexpected": 8179, "Ġraw": 8180, "Ġacqu": 8181, "Ġyellow": 8182, "Ġapproach": 8183, "961": 8184, "jets": 8185, "Ġate": 8186, "000": 8187, "Ġromans": 8188, "Ġtrack": 8189, "obre": 8190, "Ġagreement": 8191, "Ġglowing": 8192, "ĠLee": 8193, "Ph": 8194, "ĠÃītat": 8195, "ologiques": 8196, "Ġconfir": 8197, "Ġvoix": 8198, "Does": 8199, "Ġmessy": 8200, "amin": 8201, "rily": 8202, "166": 8203, "Ġguards": 8204, "Ã©rit": 8205, "Ġwaste": 8206, "emba": 8207, "Ġweapon": 8208, "Ġseed": 8209, "ishly": 8210, "ĠTae": 8211, "901": 8212, "927": 8213, "Ġpage": 8214, "Ġhurting": 8215, "emps": 8216, "joint": 8217, "rud": 8218, "Ġvingt": 8219, "Ġmanner": 8220, "rin": 8221, "Ġofficiellement": 8222, "Ġrevealing": 8223, "225": 8224, "BEE": 8225, "ĠLiam": 8226, "ols": 8227, "Ġrealizing": 8228, "Ġtaught": 8229, "Ġmaje": 8230, "AEE": 8231, "ABC": 8232, "ushi": 8233, "Ã©rieure": 8234, "ĠInori": 8235, "aeya": 8236, "ulture": 8237, "glomÃ©ration": 8238, "Ġprojet": 8239, "Ġsearch": 8240, "ĠFribourg": 8241, "Ġswollen": 8242, "Ġslips": 8243, "Ġremaining": 8244, "Ġexperienced": 8245, "Ġdorm": 8246, "Ã©nom": 8247, "Ġscience": 8248, "1345": 8249, "ĠtchÃ¨que": 8250, "Hmm": 8251, "Ġheaven": 8252, "ĠformÃ©": 8253, "ĠNat": 8254, "Ġconstitue": 8255, "Ġpron": 8256, "rÃ©s": 8257, "Ġresult": 8258, "ĠrÃ©put": 8259, "Ġadvantage": 8260, "Ġconcentration": 8261, "oisse": 8262, "ĠBig": 8263, "938": 8264, "Ġplant": 8265, "Ġbree": 8266, "Ġevents": 8267, "969": 8268, "BCC": 8269, "Ġeagerly": 8270, "ĠpÃ©t": 8271, "Ġfavour": 8272, "635": 8273, "Ġwishes": 8274, "BED": 8275, "Ġzones": 8276, "Ġquant": 8277, "Ġwritten": 8278, "703": 8279, "Ġcrad": 8280, "ĠCharlotte": 8281, "Lan": 8282, "wil": 8283, "Ġreceived": 8284, "Ġattend": 8285, "Ġseconde": 8286, "Ab": 8287, "Ġflashed": 8288, "Ġdetail": 8289, "Ġfeather": 8290, "Ġplayful": 8291, "Ġsurn": 8292, "Ġbought": 8293, "husi": 8294, "Ġamb": 8295, "686": 8296, "Ġgreeted": 8297, "222": 8298, "ĠHongjoong": 8299, "gang": 8300, "iend": 8301, "Ġhurried": 8302, "ĠBon": 8303, "ĠrÃ©se": 8304, "Ġclimbed": 8305, "icing": 8306, "713": 8307, "Ġfootballeur": 8308, "Was": 8309, "Ġsqueezes": 8310, "Ġtwitching": 8311, "824": 8312, "603": 8313, "Ġphy": 8314, "rimoine": 8315, "Ġbowl": 8316, "829": 8317, "ADD": 8318, "uant": 8319, "708": 8320, "Ġhorrible": 8321, "ĠShelby": 8322, "Ġgrace": 8323, "Ġrecense": 8324, "aren": 8325, "ubborn": 8326, "itty": 8327, "Ġkilling": 8328, "Ã¸": 8329, "BFC": 8330, "ĠMet": 8331, "Ġprincess": 8332, "Ġreflect": 8333, "Ġorders": 8334, "Ġdat": 8335, "Ġdating": 8336, "izz": 8337, "onst": 8338, "Ġber": 8339, "Ġthrows": 8340, "ĠEveryone": 8341, "Ġspar": 8342, "Ġconsac": 8343, "hum": 8344, "Ġaup": 8345, "BDD": 8346, "ĠreÃ§oit": 8347, "Ġanciens": 8348, "isions": 8349, "hyp": 8350, "ĠprÃ©sence": 8351, "ABF": 8352, "riss": 8353, "ĠLeah": 8354, "ĠTa": 8355, "Ġbreathless": 8356, "Ġprobl": 8357, "oÃ¯": 8358, "Ġthread": 8359, "altitude": 8360, "ackity": 8361, "ĠJacob": 8362, "ĠBianca": 8363, "815": 8364, "wald": 8365, "Ġchante": 8366, "Ġspit": 8367, "Hen": 8368, "Ġ2005": 8369, "Ġstudy": 8370, "rÃ©g": 8371, "ADF": 8372, "Ġdecor": 8373, "acul": 8374, "ĠmajoritÃ©": 8375, "Ġdept": 8376, "Ġspoken": 8377, "Ġhalfway": 8378, "977": 8379, "istor": 8380, "Ġdrove": 8381, "Robert": 8382, "ĠJesse": 8383, "ĠrÃ©gime": 8384, "atri": 8385, "Ġconcept": 8386, "ĠDil": 8387, "Mal": 8388, "ĠTV": 8389, "Institut": 8390, "ĠWithout": 8391, "Cal": 8392, "Ġutterly": 8393, "Ġdepth": 8394, "Ġcheer": 8395, "ADB": 8396, "ABE": 8397, "ĠAnother": 8398, "ĠspÃ©c": 8399, "ĠSieg": 8400, "ĠtÃªte": 8401, "Ġcow": 8402, "itime": 8403, "814": 8404, "minis": 8405, "Ġcreated": 8406, "Ġupwards": 8407, "ĠAu": 8408, "Ġedges": 8409, "boy": 8410, "Ġshield": 8411, "ĠCra": 8412, "200": 8413, "iÃ©s": 8414, "iji": 8415, "woo": 8416, "Ġmalad": 8417, "Ġscars": 8418, "Ġawkwardly": 8419, "Ġgarden": 8420, "ĠBarb": 8421, "BDE": 8422, "Ġprove": 8423, "ĠHolly": 8424, "Ġfaded": 8425, "Ġshining": 8426, "AEC": 8427, "Ġbehav": 8428, "ĠNever": 8429, "vÃ©": 8430, "Ġreluct": 8431, "Ġpolon": 8432, "857": 8433, "Ê¼": 8434, "Ġwaking": 8435, "Ġsubst": 8436, "oÃ»t": 8437, "ĠreprÃ©sentant": 8438, "Ġegg": 8439, "ĠMickey": 8440, "Ġtur": 8441, "Ġfeed": 8442, "Ġruin": 8443, "Ġfrozen": 8444, "ases": 8445, "Ġdifference": 8446, "Ġespagnol": 8447, "Ġwizard": 8448, "aron": 8449, "Ġdeserved": 8450, "Ġperd": 8451, "Ġplayfully": 8452, "Ġfootsteps": 8453, "Ġvideo": 8454, "735": 8455, "932": 8456, "onghwa": 8457, "Ġsaint": 8458, "Ġdisci": 8459, "iennes": 8460, "Ġdirt": 8461, "Ġbeer": 8462, "Ġchanging": 8463, "gique": 8464, "972": 8465, "Ġ2007": 8466, "case": 8467, "AEF": 8468, "rod": 8469, "906": 8470, "Ġrefuse": 8471, "orce": 8472, "173": 8473, "azed": 8474, "Ġawful": 8475, "osen": 8476, "III": 8477, "308": 8478, "Ġcaressing": 8479, "672": 8480, "ĠPays": 8481, "Ġclas": 8482, "ropri": 8483, "653": 8484, "aru": 8485, "Ġnotices": 8486, "776": 8487, "ĠBad": 8488, "DÃ¨s": 8489, "ĠNa": 8490, "Ġpossess": 8491, "Ġblankets": 8492, "Ġtaille": 8493, "Ġblushing": 8494, "Ġinfluence": 8495, "Ġmeas": 8496, "1260": 8497, "945": 8498, "ĠLong": 8499, "Ġvulnerable": 8500, "oop": 8501, "BEB": 8502, "onique": 8503, "Ġcontain": 8504, "Ġstartled": 8505, "Ġforgive": 8506, "Ġsignifie": 8507, "Ces": 8508, "asha": 8509, "Ġyan": 8510, "Ġsharing": 8511, "Ġclock": 8512, "1347": 8513, "BFB": 8514, "autre": 8515, "Ġgasping": 8516, "gÃ©": 8517, "ĠÂł": 8518, "AFD": 8519, "Ġprick": 8520, "ĠentraÃ®": 8521, "Ġenthusi": 8522, "Ġphysique": 8523, "Ġrobe": 8524, "ĠPrince": 8525, "AFE": 8526, "ABA": 8527, "Ġscram": 8528, "yck": 8529, "Ġvarious": 8530, "Ġuniform": 8531, "ĠHit": 8532, "Ġcolon": 8533, "inois": 8534, "Ġincredible": 8535, "Ġdug": 8536, "830": 8537, "Ġhorse": 8538, "Ġchois": 8539, "965": 8540, "Ġimpress": 8541, "Ġtwitched": 8542, "Ġvac": 8543, "Ġwigg": 8544, "Ġcloset": 8545, "idelberg": 8546, "ĠJane": 8547, "Ġechoed": 8548, "Ġcleaning": 8549, "ĠprÃ©f": 8550, "Ġpictures": 8551, "Org": 8552, ".)": 8553, "Ġdread": 8554, "Ġannoun": 8555, "Ġfondateur": 8556, "Ġscreams": 8557, "...?\"": 8558, "Ġgrey": 8559, "Ġarchitecte": 8560, "Ġromaine": 8561, "Ġchill": 8562, "BDC": 8563, "ishima": 8564, "Ġhesitation": 8565, "Ġcrotch": 8566, "Ġgag": 8567, "755": 8568, "ĠSak": 8569, "Ġforearm": 8570, "Ġgods": 8571, "hew": 8572, "ĠrÃ©sult": 8573, "Stop": 8574, "Ġweekend": 8575, "ĠChristmas": 8576, "gent": 8577, "1331": 8578, "Åĵuvre": 8579, "Ġtechnique": 8580, "Ġfid": 8581, "imi": 8582, "ĠSand": 8583, "Ġstead": 8584, "Ġbutter": 8585, "Ġsym": 8586, "842": 8587, "Ġprecious": 8588, "Ġoverwhelmed": 8589, "Ġconvince": 8590, "Ġmel": 8591, "Ġaffluent": 8592, "osse": 8593, "oldem": 8594, "velyn": 8595, "ĠTake": 8596, "189": 8597, "ĠeuropÃ©en": 8598, "Ġstubborn": 8599, "extr": 8600, "ker": 8601, "sud": 8602, "Ġwounds": 8603, "Ġcommuniste": 8604, "Ġhistory": 8605, "ĠFriday": 8606, "1290": 8607, "Ġhyung": 8608, "import": 8609, "Ġcompan": 8610, "948": 8611, "AEA": 8612, "Ġnitrique": 8613, "Ġpattern": 8614, "ĠHeidelberg": 8615, "Ġrushing": 8616, "ĠYalta": 8617, "ĠThose": 8618, "hod": 8619, "Ġinsane": 8620, "Ha": 8621, "ĠNight": 8622, "Ġnames": 8623, "ĠdÃ©sormais": 8624, "ĠaoÃ»t": 8625, "Ġboard": 8626, "ĠHesse": 8627, "Ġrecently": 8628, "Ġchinois": 8629, "lligence": 8630, "Ġchocol": 8631, "Ġprevent": 8632, "ADC": 8633, "ĠRain": 8634, "602": 8635, "Alfred": 8636, "Ġtatt": 8637, "Ġflames": 8638, "Tr": 8639, "Ġenseign": 8640, "obs": 8641, "Ġge": 8642, "ĠMiy": 8643, "101401": 8644, "luence": 8645, "Ġstaff": 8646, "retagne": 8647, "Ġpillows": 8648, "Ġappartenant": 8649, "BFA": 8650, "BBA": 8651, "667": 8652, "ĠSarah": 8653, "Ġenfant": 8654, "press": 8655, "SS": 8656, "ify": 8657, "632": 8658, "Ġclenching": 8659, "rob": 8660, "Ġpatrimoine": 8661, "AmÃ©rique": 8662, "lau": 8663, "Ġdroits": 8664, "Ġsuivant": 8665, "Ġintensity": 8666, "Ġpermett": 8667, "ĠGinny": 8668, "ABB": 8669, "BDB": 8670, "actrice": 8671, "835": 8672, "inÃ©": 8673, "Ġproject": 8674, "Ġrouge": 8675, "espÃ¨ce": 8676, "Wolf": 8677, "160": 8678, "Ġshooting": 8679, "Ġcloth": 8680, "ĠAnne": 8681, "ĠQuÃ©": 8682, "Ġthorough": 8683, "846": 8684, "Min": 8685, "ĠIII": 8686, "eline": 8687, "ĠsuÃ©d": 8688, "Ġpermission": 8689, "Wilhelm": 8690, "803": 8691, "Ġconstruit": 8692, "Ġdisappointed": 8693, "Ġmeat": 8694, "AFF": 8695, "ĠMom": 8696, "Ġchampionn": 8697, "dire": 8698, "ĠJak": 8699, "ABD": 8700, "ADA": 8701, "879": 8702, "Ã©tÃ©s": 8703, "Ġecst": 8704, "Ġslit": 8705, "ACB": 8706, "Ġtemper": 8707, "Ġencoun": 8708, "BFE": 8709, "iac": 8710, "904": 8711, "Ġax": 8712, "Ġmob": 8713, "Organisation": 8714, "Ġ2001": 8715, "encÃ©": 8716, "hausen": 8717, "isl": 8718, "eness": 8719, "Br": 8720, "Ġgenuine": 8721, "ON": 8722, "BDF": 8723, "Ġtub": 8724, "Ġlimite": 8725, "Ġoctobre": 8726, "206": 8727, "1313": 8728, "Ġproxim": 8729, "Ġdirectement": 8730, "Ġdisappear": 8731, "866": 8732, "AFC": 8733, "AED": 8734, "ctive": 8735, "Ġactuel": 8736, "750": 8737, "ĠMi": 8738, "ĠEnid": 8739, "nth": 8740, "723": 8741, "aek": 8742, "940": 8743, "Ġgoodbye": 8744, "Their": 8745, "Ġrapidly": 8746, "ÅĻ": 8747, "Ġnoticing": 8748, "Ġbothered": 8749, "Ġsweetheart": 8750, "Ġhommes": 8751, "Ġconqu": 8752, "1235": 8753, "ĠmÃ©decin": 8754, "947": 8755, "alitÃ©s": 8756, "AFA": 8757, "ĠQuÃ©bec": 8758, "Rem": 8759, "ued": 8760, "Ġmyster": 8761, "Ġseulement": 8762, "ĠOur": 8763, "732": 8764, "ĠsoviÃ©tique": 8765, "ĠAc": 8766, "1707": 8767, "Ġhesitated": 8768, "928": 8769, "aturday": 8770, "Ġpoured": 8771, "orchestre": 8772, "Ġphysicien": 8773, "1463": 8774, "Ġbone": 8775, "Wan": 8776, "Ã©min": 8777, "ĠWest": 8778, "ĠWhatever": 8779, "Comme": 8780, "306": 8781, "AAA": 8782, "Ġpublie": 8783, "BEA": 8784, "Ġwiping": 8785, "ADE": 8786, "BCD": 8787, "ĠAkira": 8788, "anos": 8789, "ĠTina": 8790, "Ġtorn": 8791, "ĠFranz": 8792, "rot": 8793, "ĠHaw": 8794, "Ġterrified": 8795, "Ġlance": 8796, "igned": 8797, "Ã¡z": 8798, "Ġ<": 8799, "BCB": 8800, "Ġsnorted": 8801, "Ġcontract": 8802, "gra": 8803, "1832": 8804, "851": 8805, "Ġcrush": 8806, "iesb": 8807, "immy": 8808, "BCE": 8809, "iesbaden": 8810, "Ġ2003": 8811, "Ġmontagne": 8812, "Ġbless": 8813, "ĠspÃ©cialiste": 8814, "Ã©ch": 8815, "Ġcorrid": 8816, "Ġimpatient": 8817, "Ġdisbelief": 8818, "urch": 8819, "ĠPremiÃ¨re": 8820, "Ġhame": 8821, "Ġsooner": 8822, "ativement": 8823, "ĠÅĵuvre": 8824, "haired": 8825, "Hel": 8826, "Ġfate": 8827, "ops": 8828, "Ġsport": 8829, "Ġbastard": 8830, "adÃ©mie": 8831, "Ġguit": 8832, "orc": 8833, "Ġcos": 8834, "Ġcracked": 8835, "uha": 8836, "Ġmise": 8837, "Ġcurl": 8838, "Ġreturns": 8839, "Ġrubs": 8840, "Ġnobody": 8841, "Ġholl": 8842, "aby": 8843, "Ã©roport": 8844, "ĠchrÃ©t": 8845, "Ã©rale": 8846, "ĠBelgique": 8847, "ĠGenÃ¨ve": 8848, "irty": 8849, "801": 8850, "Ġinstall": 8851, "ĠBesides": 8852, "Ġauc": 8853, "Ġmesure": 8854, "Ġbridge": 8855, "237": 8856, "ĠBrad": 8857, "oldemort": 8858, "auteur": 8859, "Ġbags": 8860, "Ġvoices": 8861, "ĠdÃ©cou": 8862, "ĠAnton": 8863, "ayed": 8864, "Ġlies": 8865, "ĠUr": 8866, "ĠQing": 8867, "Ġsubs": 8868, "Ġpainfully": 8869, "Ġcollection": 8870, "Ġboxers": 8871, "ĠErwin": 8872, "Sc": 8873, "739": 8874, "HH": 8875, "178": 8876, "Heinrich": 8877, "Ġpetits": 8878, "oyce": 8879, "Ġcependant": 8880, "Ġthumbs": 8881, "habit": 8882, "chet": 8883, "133116": 8884, "Ġtels": 8885, "ongli": 8886, "Aujourd": 8887, "Ġfasc": 8888, "Ã¨g": 8889, "Ġgestured": 8890, "Ġiron": 8891, "Really": 8892, "ĠSometimes": 8893, "Ġyawn": 8894, "Ġsob": 8895, "Ġpunch": 8896, "While": 8897, "mund": 8898, "ners": 8899, "Ġissu": 8900, "ĠTch": 8901, "Ġexistence": 8902, "Ġoccur": 8903, "Ġfreed": 8904, "Ġelbow": 8905, "Ġabruptly": 8906, "igny": 8907, "ĠAlthough": 8908, "Ġsan": 8909, "Ġrese": 8910, "ĠLim": 8911, "Ġstudent": 8912, "Ġconstantly": 8913, "Ġoriginal": 8914, "instein": 8915, "Shit": 8916, "Ġ1950": 8917, "Ã©crit": 8918, "715": 8919, "ACD": 8920, "Ġfright": 8921, "ĠRom": 8922, "Ã©glise": 8923, "Ġreplaced": 8924, "cembre": 8925, "ĠmarchÃ©": 8926, "Ġadds": 8927, "Ġrules": 8928, "ACF": 8929, "gas": 8930, "Ġyel": 8931, "858": 8932, "Ã¡r": 8933, "Ġconvinced": 8934, "ĠHigh": 8935, "Ġabd": 8936, "852": 8937, "802": 8938, "ĠhÃ©": 8939, "Ġeyed": 8940, "estly": 8941, "ints": 8942, "Ġcrew": 8943, "Finally": 8944, "ĠEst": 8945, "Ġpainting": 8946, "Ġdismiss": 8947, "Ġstradd": 8948, "Ġspeech": 8949, "Ġsatisfaction": 8950, "ĠapparaÃ®t": 8951, "650": 8952, "ĠRan": 8953, "ĠYor": 8954, "Ġconnected": 8955, "Ġcough": 8956, "ĠMik": 8957, "Ġrobes": 8958, "armÃ©e": 8959, "Ã©volution": 8960, "scar": 8961, "gest": 8962, "1318": 8963, "728": 8964, "ela": 8965, "anning": 8966, "Ġindustri": 8967, "Ġbench": 8968, "Ġcigarette": 8969, "Ġsharply": 8970, "Ġromantic": 8971, "MA": 8972, "ĠBor": 8973, "ications": 8974, "AEB": 8975, "Wei": 8976, "Ġsettling": 8977, "Ġelbows": 8978, "Ġrestaurant": 8979, "aekhyun": 8980, "Ġtwisting": 8981, "Ġculturel": 8982, "igo": 8983, "astique": 8984, "1201": 8985, "Ġstudio": 8986, "025": 8987, "Ġinsides": 8988, "Ġchallenge": 8989, "Ġhugging": 8990, "Ġheated": 8991, "Ġpaying": 8992, "Ġapproaching": 8993, "Ġoption": 8994, "ethe": 8995, "Ġmatters": 8996, "char": 8997, "Ġetc": 8998, "891": 8999, "Ġcultiv": 9000, "ĠMÃ¼ller": 9001, "itor": 9002, "196": 9003, "Ġthreatening": 9004, "Ġinse": 9005, "Ġremove": 9006, "ĠmathÃ©maticien": 9007, "Fel": 9008, "Tout": 9009, "1015": 9010, "Ġassured": 9011, "Charles": 9012, "Ġolymp": 9013, "Ġatm": 9014, "BFD": 9015, "BBB": 9016, "Ġcutting": 9017, "Ġmachine": 9018, "ĠKeith": 9019, "iod": 9020, "Ġblinks": 9021, "Ġcasual": 9022, "tz": 9023, "ĠDick": 9024, "Ġ\"(": 9025, "ĠYOU": 9026, "onnÃ©": 9027, "Ġformula": 9028, "acer": 9029, "atically": 9030, "ĠOtto": 9031, "ĠGranger": 9032, "Ġfake": 9033, "rm": 9034, "inely": 9035, "Ġagric": 9036, "Ġpregnant": 9037, "Dou": 9038, "ario": 9039, "AFB": 9040, "efois": 9041, "BCF": 9042, "Ġcrossing": 9043, "ĠHog": 9044, "ĠPrin": 9045, "BEF": 9046, "Ġconcert": 9047, "France": 9048, "igneur": 9049, "Ġappearance": 9050, "Sil": 9051, "amie": 9052, "Ġrisque": 9053, "Ġdamage": 9054, "Mais": 9055, "Ġremembering": 9056, "ĠYam": 9057, "Ġconstant": 9058, "Ġspending": 9059, "Ġsang": 9060, "bie": 9061, "illaume": 9062, "Ġoutfit": 9063, "Anna": 9064, "acÃ©": 9065, "ĠCity": 9066, "ĠPap": 9067, "Ġenvir": 9068, "avin": 9069, "ĠMu": 9070, "ĠÃ©lÃ©ments": 9071, "ĠWar": 9072, "BDA": 9073, "Ġexplan": 9074, "ĠvidÃ©": 9075, "phas": 9076, "ĠCaptain": 9077, "207": 9078, "anÃ§ois": 9079, "Ġradi": 9080, "dÃ©mocrate": 9081, "ĠBea": 9082, "Ġribs": 9083, "915": 9084, "Angleterre": 9085, "bal": 9086, "Ġwhispering": 9087, "irts": 9088, "Ġsection": 9089, "arest": 9090, "Miss": 9091, "ĠÃ¢": 9092, "aba": 9093, "551": 9094, "Ġemotional": 9095, "ĠBres": 9096, "864": 9097, "Ġbesides": 9098, "Ġgiggles": 9099, "Ġcombat": 9100, "Ġuniverse": 9101, "unched": 9102, "995": 9103, "ACA": 9104, "Ġprobablement": 9105, "ĠdÃ©cembre": 9106, "ĠYeah": 9107, "Ġembarrassing": 9108, "Ġdecides": 9109, "ĠJa": 9110, "mun": 9111, "FCE": 9112, "Ġlicks": 9113, "Ġensemble": 9114, "Ġappartient": 9115, "Ġopin": 9116, "Ġsembl": 9117, "Ġrum": 9118, "ĠSaturday": 9119, "968": 9120, "ĠBi": 9121, "Ġcaring": 9122, "Ġwrite": 9123, "656": 9124, "ĠCloud": 9125, "Ġstim": 9126, "Ġpee": 9127, "Ġruined": 9128, "occup": 9129, "899": 9130, "300": 9131, "BEC": 9132, "Ġbureau": 9133, "aures": 9134, "162": 9135, "ĠArt": 9136, "izes": 9137, "Only": 9138, "ĠWalter": 9139, "ĠArch": 9140, "orb": 9141, "Ġterror": 9142, "Ġlangues": 9143, "Ġpathetic": 9144, "913": 9145, "Ron": 9146, "Ġ2020": 9147, "Ġmagazine": 9148, "yer": 9149, "ĠmoitiÃ©": 9150, "208": 9151, "Ġreveal": 9152, "osang": 9153, "Ġpicks": 9154, "ĠBuffy": 9155, "ĠCy": 9156, "934": 9157, "ĠViktor": 9158, "Asie": 9159, "DDE": 9160, "Ġgrunted": 9161, "ju": 9162, "oral": 9163, "Ġgym": 9164, "ĠDyck": 9165, "Ġfemale": 9166, "Ġreligion": 9167, "Ġretrouve": 9168, "Ġwhines": 9169, "Ġstatement": 9170, "istr": 9171, "unned": 9172, "ĠGar": 9173, "Ġcurve": 9174, "775": 9175, "irs": 9176, "305": 9177, "Ġadj": 9178, "Ġnavig": 9179, "Ġdevenir": 9180, "Ġgrumbled": 9181, "ĠsÃ©par": 9182, "Ġcustom": 9183, "Ġpiano": 9184, "Ġphoto": 9185, "ĠLink": 9186, "1040": 9187, "192": 9188, "Ġsucks": 9189, "Ġchecking": 9190, "836": 9191, "ĠsÃ©c": 9192, "ĠLie": 9193, "Ã©dition": 9194, "Ġgad": 9195, "ĠEspecially": 9196, "Ġuncertain": 9197, "Ġfantas": 9198, "aline": 9199, "1533": 9200, "uits": 9201, "NÃ©": 9202, "Ġpoiss": 9203, "FCC": 9204, "Ġuseless": 9205, "Ġantique": 9206, "essa": 9207, "Ġmyth": 9208, "Ġremporte": 9209, "Ġsoaked": 9210, "Ġindul": 9211, "ĠJanemba": 9212, "opt": 9213, "769": 9214, "Ġromain": 9215, "ĠOs": 9216, "861": 9217, "unning": 9218, "736": 9219, "ĠFelic": 9220, "931": 9221, "Ġcuts": 9222, "Ġrich": 9223, "ĠmÃ©can": 9224, "ede": 9225, "ĠKiy": 9226, "Ġkm": 9227, "ĠÃ©ch": 9228, "124": 9229, "Ġsched": 9230, "Ġmoyen": 9231, "ĠIan": 9232, "806": 9233, "Ġ1970": 9234, "ĠKaeya": 9235, "Ġbored": 9236, "Ġtarget": 9237, "Ġteach": 9238, "Ġzool": 9239, "don": 9240, "uels": 9241, "Mmm": 9242, "ented": 9243, "abs": 9244, "iple": 9245, "Ġnoms": 9246, "Ġplaine": 9247, "Ġlaw": 9248, "qui": 9249, "Ġshud": 9250, "Ġneat": 9251, "Ġwriting": 9252, "ĠBoy": 9253, "Ġtypes": 9254, "Ġclasses": 9255, "Ġrecognize": 9256, "353": 9257, "Ġcave": 9258, "Ġuncle": 9259, "ĠNiÅ¡": 9260, "Ġshuddered": 9261, "osl": 9262, "place": 9263, "Ġmulti": 9264, "Ġparoisse": 9265, "otic": 9266, "Ġsheer": 9267, "avou": 9268, "978": 9269, "Pe": 9270, "ĠtÃ©mo": 9271, "Ġassume": 9272, "Ġslut": 9273, "Ġpoison": 9274, "Ġcondom": 9275, "bli": 9276, "Ġarmor": 9277, "Ġsinking": 9278, "Ġzoolog": 9279, "942": 9280, "Ġvrai": 9281, "ðŁ": 9282, "ĠcompÃ©t": 9283, "ĠQueen": 9284, "Ġelevator": 9285, "Ġabdomen": 9286, "Ġsheep": 9287, "Ġpauses": 9288, "194": 9289, "Ġpanted": 9290, "525": 9291, "Crowley": 9292, "Ġremains": 9293, "Ġaddress": 9294, "Ġpow": 9295, "damn": 9296, "aying": 9297, "ĠmÃ©tropolitaine": 9298, "205": 9299, "734": 9300, "ĠElena": 9301, "acteur": 9302, "Ġclar": 9303, "981": 9304, "ĠBat": 9305, "Ġentertain": 9306, "Ġpinned": 9307, "638": 9308, "888": 9309, "Ġtrailing": 9310, "Ġtightening": 9311, "Ãītats": 9312, "Ġcleaned": 9313, "¤§": 9314, "Ġgames": 9315, "emin": 9316, "Ġproven": 9317, "Ġtracing": 9318, "ĠcitÃ©": 9319, "war": 9320, "Ġhol": 9321, "ĠHeather": 9322, "ĠClary": 9323, "Ġrecognized": 9324, "Ã©ries": 9325, "Ġbleeding": 9326, "alyse": 9327, "Sa": 9328, "ĠrÃ©un": 9329, "Li": 9330, "Ġworn": 9331, "Ġreconna": 9332, "gie": 9333, "shirt": 9334, "Ġmixed": 9335, "ĠKurt": 9336, "ĠYun": 9337, "Ġlarger": 9338, "854": 9339, "Ġcanad": 9340, "cipe": 9341, "utilisation": 9342, "acas": 9343, "ĠLove": 9344, "FDC": 9345, "ĠLang": 9346, "ĠAnthony": 9347, "Ðµ": 9348, "orld": 9349, "auer": 9350, "652": 9351, "Ġsnaps": 9352, "Ġargu": 9353, "Ġevil": 9354, "ĠMand": 9355, "ĠKaveh": 9356, "long": 9357, "acles": 9358, "Ġceux": 9359, "Ġserait": 9360, "ı¯": 9361, "ability": 9362, "Ġavoiding": 9363, "hm": 9364, "ĠdÃ©mocrat": 9365, "Ġthousand": 9366, "Ser": 9367, "èı¯": 9368, "åľĭ": 9369, "909": 9370, "Ġrecensement": 9371, "itched": 9372, "ustav": 9373, "ĠFinally": 9374, "Ġdevil": 9375, "Ġsticking": 9376, "uya": 9377, "Ġphysically": 9378, "Ġhal": 9379, "Ġnic": 9380, "rap": 9381, "ĠfÃ©min": 9382, "Ġunlike": 9383, "Ġcaptain": 9384, "Ġsurvive": 9385, "Ġgauche": 9386, "ĠHum": 9387, "clÃ©": 9388, "ĠOut": 9389, "Ġimages": 9390, "Ġsweaty": 9391, "79999": 9392, "BahreÃ¯n": 9393, "weet": 9394, "989": 9395, "Ġsacrif": 9396, "Nick": 9397, "zbourg": 9398, "Ġtap": 9399, "nej": 9400, "Albert": 9401, "Ġannoying": 9402, "Äĩ": 9403, "614": 9404, "Ġmouths": 9405, "Ġphotos": 9406, "665": 9407, "ĠthÃ©olog": 9408, "Ġdemanded": 9409, "747": 9410, "Ġspring": 9411, "Ġtreated": 9412, "Ġparties": 9413, "Ġcompagnie": 9414, "682": 9415, "FEE": 9416, "Ġpont": 9417, "268": 9418, "758": 9419, "ritz": 9420, "Ġannoyance": 9421, "ounds": 9422, "Ġshivered": 9423, "655": 9424, "104": 9425, "170": 9426, "Ġcasually": 9427, "alisation": 9428, "Ġarriv": 9429, "oomi": 9430, "CFE": 9431, "ĠSever": 9432, "ĠAnakin": 9433, "ĠDoes": 9434, "Suddenly": 9435, "ansion": 9436, "ĠTwo": 9437, "ĠWon": 9438, "FDD": 9439, "axim": 9440, "Ġtaller": 9441, "ĠCaitlyn": 9442, "302": 9443, "BCA": 9444, "onnes": 9445, "position": 9446, "Ġscen": 9447, "ĠdÃ©buts": 9448, "Ġsuc": 9449, "Ġattached": 9450, "Ġvient": 9451, "Ġnobl": 9452, "ogne": 9453, "Ġpseudonyme": 9454, "isen": 9455, "Ġboo": 9456, "Ġobsc": 9457, "inform": 9458, "Ġretre": 9459, "Ġspare": 9460, "oyoung": 9461, "Ġwhimpers": 9462, "ĠintitulÃ©": 9463, "å¤§": 9464, "921": 9465, "hiver": 9466, "ustin": 9467, "rente": 9468, "urning": 9469, "Ġmumbles": 9470, "Ġcourage": 9471, "ĠrÃ©sist": 9472, "Ġbruises": 9473, "ĠtÃ©lÃ©vision": 9474, "Ġspun": 9475, "Ġmanages": 9476, "Ġpens": 9477, "Ã©sil": 9478, "645": 9479, "Ġexplos": 9480, "vait": 9481, "oli": 9482, "indÃ©pendance": 9483, "ĠdÃ©rou": 9484, "Ġcontempl": 9485, "Ġhelps": 9486, "DEB": 9487, "988": 9488, "ansas": 9489, "ĠKy": 9490, "709": 9491, "1093": 9492, "ellation": 9493, "udes": 9494, "Ġdesserv": 9495, "Ġassure": 9496, "Ġregroup": 9497, "Ġsubtle": 9498, "Ġreward": 9499, "alisme": 9500, "ĠAnn": 9501, "Ġstock": 9502, "ĠGoku": 9503, "Ġclosely": 9504, "EDC": 9505, "Ġofficier": 9506, "Cependant": 9507, "ĠLes": 9508, "Ġmagical": 9509, "ĠSunday": 9510, "Ġadorable": 9511, "Man": 9512, "Ġtax": 9513, "Ġhuit": 9514, "ĠmÃ©daille": 9515, "Ġspots": 9516, "Ġcheval": 9517, "Ġstreets": 9518, "ĠpiÃ¨ce": 9519, "Ġprat": 9520, "tingen": 9521, "Ġsnugg": 9522, "Ainsi": 9523, "Ġsecurity": 9524, "Ġelf": 9525, "Ġrealization": 9526, "Ġprest": 9527, "ĠpÃ©d": 9528, "geois": 9529, "Ġgenuinely": 9530, "âĢ¦": 9531, "Ġwider": 9532, "ĠKun": 9533, "1285": 9534, "ĠVan": 9535, "881": 9536, "Ġstumbled": 9537, "ĠChloe": 9538, "oming": 9539, "ĠDra": 9540, "Ġneedy": 9541, "Ġabsolute": 9542, "ighb": 9543, "ÃŃn": 9544, "OO": 9545, "Ġchocolate": 9546, "Ġnation": 9547, "Ġfantasy": 9548, "Ġcollapsed": 9549, "antÃ©": 9550, "ĠNag": 9551, "Ġbelge": 9552, "Ġparle": 9553, "Ġlocks": 9554, "oving": 9555, "Ġcloches": 9556, "lly": 9557, "Ġspinning": 9558, "ĠmatiÃ¨re": 9559, "Ġlanguage": 9560, "533": 9561, "Wal": 9562, "ĠMus": 9563, "Ġstruggle": 9564, "Je": 9565, "aac": 9566, "amille": 9567, "CDC": 9568, "alp": 9569, "ĠBraun": 9570, "rissy": 9571, "Ġtrusted": 9572, "architecture": 9573, "Ġformed": 9574, "Ġcupped": 9575, "ackson": 9576, "Ġchanges": 9577, "uÃ¡": 9578, "Ġ1989": 9579, "Ġanxious": 9580, "inv": 9581, "Ġcousin": 9582, "Ġelles": 9583, "Ġcommerci": 9584, "982": 9585, "ĠThor": 9586, "Ġloos": 9587, "Inde": 9588, "Ġremport": 9589, "milie": 9590, "ĠMiguel": 9591, "ĠauprÃ¨s": 9592, "DFC": 9593, "ingen": 9594, "ĠSade": 9595, "Ġnightmare": 9596, "rien": 9597, "ĠSpike": 9598, "hire": 9599, "DEE": 9600, "ĠEvelyn": 9601, "nghuÃ¡": 9602, "åįİ": 9603, "æ°ĳå": 9604, "imus": 9605, "Ġleaking": 9606, "ĠWhe": 9607, "Ġgiant": 9608, "191": 9609, "Ġlargement": 9610, "Ġrings": 9611, "rior": 9612, "chant": 9613, "1330": 9614, "1055": 9615, "aia": 9616, "Bien": 9617, "Ġrue": 9618, "Ã©dÃ©ration": 9619, "Ġscientifique": 9620, "Ġmeilleur": 9621, "Ġslightest": 9622, "ĠScott": 9623, "iku": 9624, "ancienne": 9625, "Ġtraces": 9626, "ĠAnna": 9627, "oires": 9628, "ĠNorm": 9629, "olinium": 9630, "Ġgadolinium": 9631, "fire": 9632, "Ġawe": 9633, "ĠSong": 9634, "ĠTell": 9635, "Ġseven": 9636, "ĠÃ©gypt": 9637, "TA": 9638, "Ġsticky": 9639, "ĠMond": 9640, "Ġmultiple": 9641, "Sl": 9642, "Ġ22": 9643, "Ġbrut": 9644, "Ġ1999": 9645, "261": 9646, "ĠKh": 9647, "ntil": 9648, "ING": 9649, "ĠSarre": 9650, "Ġupstairs": 9651, "ĠBakugou": 9652, "Ġconnect": 9653, "727": 9654, "Ġoblig": 9655, "Ġsank": 9656, "ĠNouvelle": 9657, "303": 9658, "Ġskull": 9659, "Ġlord": 9660, "Ã©nanie": 9661, "install": 9662, "Ġdesp": 9663, "ĠJoel": 9664, "Um": 9665, "riÃ¨me": 9666, "Ġsadness": 9667, "ĠquatriÃ¨me": 9668, "ĠVol": 9669, "ĠtÃ©t": 9670, "ĠOmega": 9671, "Ġsurprisingly": 9672, "918": 9673, "Ġbecomes": 9674, "Ġintended": 9675, "Ġnazi": 9676, "cture": 9677, "Ġgeneral": 9678, "cole": 9679, "971": 9680, "usanne": 9681, "Ġinstitut": 9682, "Ġknocking": 9683, "ĠCologne": 9684, "arte": 9685, "Ã³n": 9686, "1340": 9687, "Ġexplanation": 9688, "nap": 9689, "ouss": 9690, "Ġimpr": 9691, "505": 9692, "Ã©vrier": 9693, "ĠCall": 9694, "Ġpopped": 9695, "Ġisol": 9696, "ĠÃ©trang": 9697, "651": 9698, "Ġforming": 9699, "Ġflipped": 9700, "Ġspilling": 9701, "George": 9702, "Take": 9703, "ĠVoldemort": 9704, "ĠDamon": 9705, "Ger": 9706, "agan": 9707, "Arm": 9708, "Ġprepare": 9709, "Ġsurrounding": 9710, "Ġalt": 9711, "ĠKl": 9712, "Ġcompren": 9713, "bone": 9714, "Ill": 9715, "Ġneighb": 9716, "ĠLight": 9717, "ivre": 9718, "991": 9719, "Ġhorny": 9720, "Ġquestioned": 9721, "Ġmodern": 9722, "Ġmondial": 9723, "aria": 9724, "Ġdepart": 9725, "ickered": 9726, "Ġ1932": 9727, "ĠBlaine": 9728, "ĠLook": 9729, "CEE": 9730, "Ġsarc": 9731, "ĠSeonghwa": 9732, "Chi": 9733, "Ġ...\"": 9734, "Ġrust": 9735, "Ġisland": 9736, "Ġsmirks": 9737, "Ġbreeze": 9738, "atar": 9739, "Ġshivers": 9740, "ĠSur": 9741, "ĠEli": 9742, "506": 9743, "Ġsmelled": 9744, "Ġfriendship": 9745, "oppy": 9746, "Ġvert": 9747, "841": 9748, "More": 9749, "pen": 9750, "Ġdemande": 9751, "ĠBos": 9752, "Ġwithd": 9753, "zz": 9754, "Ġcloak": 9755, "Hi": 9756, "iger": 9757, "ĠdÃ©riv": 9758, "aku": 9759, "Ġabb": 9760, "ĠEarth": 9761, "ĠJoey": 9762, "Ġmarriage": 9763, "ĠMaurice": 9764, "aeyoung": 9765, "ĠfaÃ§on": 9766, "Ġswung": 9767, "ĠTy": 9768, "Ġsemble": 9769, "Ġsquirm": 9770, "bihan": 9771, "Ġneeding": 9772, "ĠThomas": 9773, "ĠconsÃ©qu": 9774, "ĠCourt": 9775, "ĠNouveau": 9776, "Ġfruit": 9777, "ĠGwyn": 9778, "á·": 9779, "951": 9780, "Ġcrou": 9781, "Ġchape": 9782, "Maurice": 9783, "Ġgazed": 9784, "antically": 9785, "Ġtasted": 9786, "DDC": 9787, "oning": 9788, "777": 9789, "778": 9790, "ĠRochelle": 9791, "Ġclutching": 9792, "----------------": 9793, "Ġcondu": 9794, "apons": 9795, "Ã©nieur": 9796, "Ġservices": 9797, "ĠFu": 9798, "ĠnÃ©erlandais": 9799, "Ġstunned": 9800, "Ġdroite": 9801, "Ġjourney": 9802, "fessor": 9803, "ĠMid": 9804, "ĠErik": 9805, "Hongrie": 9806, "ĠAether": 9807, "pper": 9808, "Ġchosen": 9809, "ĠEren": 9810, "Ġsigns": 9811, "ĠLil": 9812, "ĠKa": 9813, "Ġkeys": 9814, "Ġexplains": 9815, "ients": 9816, "ĠFather": 9817, "sw": 9818, "ĠdÃ©termin": 9819, "Ġsilk": 9820, "910": 9821, "157": 9822, "FDF": 9823, "known": 9824, "bon": 9825, "ĠJade": 9826, "ĠStreep": 9827, "Hello": 9828, "Ġhates": 9829, "chets": 9830, "ĠthÃ©ologien": 9831, "Ġdevelop": 9832, "ĠRay": 9833, "ĠÃ©lu": 9834, "ĠClaire": 9835, "Ġlivres": 9836, "Ġpris": 9837, "ĠAstaire": 9838, "Perhaps": 9839, "olita": 9840, "Ġscold": 9841, "Ġsymp": 9842, "Ġreprend": 9843, "ĠFlore": 9844, "ĠCraig": 9845, "126084": 9846, "Ġconce": 9847, "Ġflicked": 9848, "976": 9849, "Ġsaliva": 9850, "Ġautor": 9851, "ylo": 9852, "Whatever": 9853, "back": 9854, "ĠDie": 9855, "ĠSoci": 9856, "Ġpapers": 9857, "Ġlately": 9858, "1292": 9859, "Ġconfl": 9860, "878": 9861, "Ġlettres": 9862, "urance": 9863, "FEF": 9864, "Ġbuttons": 9865, "Ġorientale": 9866, "Ġslamming": 9867, "entreprise": 9868, "lantique": 9869, "ĠrÃ©seau": 9870, "âĢĻ.": 9871, "Ġsole": 9872, "Ġtorture": 9873, "685": 9874, "Aut": 9875, "1253": 9876, "501": 9877, "ipzig": 9878, "Ġmol": 9879, "Ġrim": 9880, "ĠDonnie": 9881, "ĠfÃ©vrier": 9882, "etic": 9883, "ĠSpe": 9884, "atron": 9885, "Ġglaring": 9886, "BAA": 9887, "Ġrejo": 9888, "Ġbrill": 9889, "Ġtrace": 9890, "Ġmariage": 9891, "Ind": 9892, "Ġfog": 9893, "Ġetern": 9894, "anksy": 9895, "Ġtilting": 9896, "Ġailleurs": 9897, "959": 9898, "Ġpouring": 9899, "765": 9900, "ĠLib": 9901, "appe": 9902, "Ġsuivante": 9903, "amÃ©ric": 9904, "Ġrelation": 9905, "Ġfemmes": 9906, "ns": 9907, "Ġupright": 9908, "Another": 9909, "ĠdÃ©clar": 9910, "792": 9911, "821": 9912, "Ġjuillet": 9913, "654": 9914, "ĠQuackity": 9915, "DDD": 9916, "iquitÃ©": 9917, "over": 9918, "Ġmos": 9919, "Ġdiverses": 9920, "ĠCrim": 9921, "quelles": 9922, "ĠMorbihan": 9923, "Ġwipe": 9924, "Ġrole": 9925, "Ġreprises": 9926, "774": 9927, "588": 9928, "ĠAy": 9929, "ĠKent": 9930, "Ġ1939": 9931, "657": 9932, "Ġfish": 9933, "sey": 9934, "ĠSk": 9935, "689": 9936, "ĠNob": 9937, "Ġbasically": 9938, "avie": 9939, "Ġglist": 9940, "Ġavril": 9941, "Ġferro": 9942, "oma": 9943, "ĠGreg": 9944, "DDF": 9945, "Max": 9946, "Ġpotion": 9947, "Ġgerm": 9948, "FDB": 9949, "chim": 9950, "ĠChilde": 9951, "Ġpasses": 9952, "Ġefforts": 9953, "Ġsleeve": 9954, "Ġsends": 9955, "Ġflutter": 9956, "Air": 9957, "ifiÃ©": 9958, "994": 9959, "ovo": 9960, "Ġflower": 9961, "than": 9962, "Ġfonde": 9963, "ĠTab": 9964, "obile": 9965, "Ġcircum": 9966, "Ġcups": 9967, "Ġlanding": 9968, "Ġfonctionn": 9969, "Ġdemons": 9970, "ĠZelda": 9971, "Ġexplor": 9972, "rs": 9973, "Ã©ph": 9974, "erson": 9975, "Ġ1944": 9976, "while": 9977, "Ġreassuring": 9978, "vil": 9979, "Ġplain": 9980, "obe": 9981, "Ġatop": 9982, "Ġcompared": 9983, "actuelle": 9984, "Ġpurred": 9985, "Ġami": 9986, "Ġargue": 9987, "Ġpissed": 9988, "lÃ©e": 9989, "uÃ©s": 9990, "954": 9991, "checs": 9992, "Ġcrimin": 9993, "Ġselfish": 9994, "Ġanimaux": 9995, "uce": 9996, "ĠMort": 9997, "Ġ1994": 9998, "Ġdesires": 9999, "ĠLumine": 10000, "Ġlorsqu": 10001, "ĠWhite": 10002, "Ġpil": 10003, "ĠutilisÃ©e": 10004, "Ġcalmly": 10005, "ĠAdolf": 10006, "Ġmutters": 10007, "ĠCro": 10008, "ĠreÃ§u": 10009, "ifiÃ©e": 10010, "Ġadding": 10011, "Ġtravaill": 10012, "Ġchanteuse": 10013, "othes": 10014, "Ġcollabor": 10015, "Ġpainted": 10016, "ĠrÃ©part": 10017, "agÃ©": 10018, "ĠOminis": 10019, "Ġnoblesse": 10020, "anging": 10021, "171": 10022, "Ġprise": 10023, "Ã©rien": 10024, "325": 10025, "1693": 10026, "ĠJacques": 10027, "ĠprÃªtre": 10028, "ĠDarrah": 10029, "ĠColle": 10030, "aisse": 10031, "FDE": 10032, "umps": 10033, "Ġgray": 10034, "From": 10035, "849": 10036, "amouche": 10037, "Ġprinces": 10038, "Ġinclus": 10039, "EDE": 10040, "Ġmand": 10041, "ference": 10042, "Ġroyal": 10043, "CFC": 10044, "Ġpic": 10045, "Ġestim": 10046, "Ġquand": 10047, "Ã¨tes": 10048, "ology": 10049, "748": 10050, "Ġappl": 10051, "Ġhuffs": 10052, "Ġriche": 10053, "log": 10054, "ĠSince": 10055, "Ġabandoned": 10056, "Ġtopic": 10057, "mates": 10058, "Ġfaced": 10059, "Ġattempted": 10060, "asper": 10061, "ĠAlpha": 10062, "199": 10063, "Ġflust": 10064, "Ì§Ì": 10065, "Ġpaint": 10066, "Ġjuin": 10067, "Ġallemands": 10068, "Jul": 10069, "ua": 10070, "ĠRin": 10071, "Ġhumili": 10072, "Ġbrunette": 10073, "Ġpowers": 10074, "ĠZhongli": 10075, "712": 10076, "orst": 10077, "Ġdesperation": 10078, "Ġfranco": 10079, "Ġexchange": 10080, "ĠBri": 10081, "Ġresol": 10082, "ĠMatthew": 10083, "Äį": 10084, "Ġshows": 10085, "ĠÂ»),": 10086, "Ġproblems": 10087, "Ġsecrets": 10088, "ĠTur": 10089, "ĠRou": 10090, "ĠcrÃ©e": 10091, "1560": 10092, "haitham": 10093, "ĠGoemon": 10094, "ÃªtÃ©": 10095, "eting": 10096, "ECC": 10097, "Ġpratique": 10098, "ĠHermann": 10099, "Ġslapped": 10100, "ĠJonathan": 10101, "Ġwicked": 10102, "Ġferrovi": 10103, "Ã¨tre": 10104, "rillo": 10105, "Ã©noph": 10106, "exas": 10107, "Ġdete": 10108, "Ġobserv": 10109, "108301": 10110, "ĠUtrillo": 10111, "oÃ¹": 10112, "Ġcollarb": 10113, "hem": 10114, "1287": 10115, "Ġlearning": 10116, "ĠKi": 10117, "843": 10118, "Ġbeach": 10119, "884": 10120, "Ġshoving": 10121, "Ġmonst": 10122, "LL": 10123, "Ġclearing": 10124, "kraine": 10125, "Ġweapons": 10126, "Ġ27": 10127, "ionnaire": 10128, "ĠSasha": 10129, "ĠBerg": 10130, "718": 10131, "avant": 10132, "Ġbegun": 10133, "Ġbouncing": 10134, "890": 10135, "Ġeup": 10136, "EFA": 10137, "CDE": 10138, "Ġquitte": 10139, "ĠObi": 10140, "Ġending": 10141, "FDA": 10142, "aehyun": 10143, "4490": 10144, "Ġpark": 10145, "ĠDi": 10146, "ECE": 10147, "Ġocean": 10148, "1343": 10149, "Ġgraph": 10150, "DFF": 10151, "1393": 10152, "Ãīcole": 10153, "83320": 10154, "Hob": 10155, "ĠHals": 10156, "shit": 10157, "Ġpraise": 10158, "rec": 10159, "Ġstrands": 10160, "ĠKochi": 10161, "ayer": 10162, "ĠdÃ©chets": 10163, "818": 10164, "Ġconfession": 10165, "Ġgrat": 10166, "2132": 10167, "zel": 10168, "174": 10169, "Ġdisappointment": 10170, "Ġbotaniste": 10171, "134": 10172, "Ġpenis": 10173, "647": 10174, "fr": 10175, "Ġhi": 10176, "ota": 10177, "Ġlied": 10178, "151": 10179, "apit": 10180, "Charlie": 10181, "Ġ).": 10182, "Ġ1998": 10183, "nape": 10184, "ĠPac": 10185, "Ġguide": 10186, "Ġkicking": 10187, "aker": 10188, "Ġbowed": 10189, "ĠLigue": 10190, "atching": 10191, "Ġobe": 10192, "Ġmug": 10193, "Ġgif": 10194, "Ġclouds": 10195, "??": 10196, "ben": 10197, "ĠFirst": 10198, "ĠvidÃ©o": 10199, "Ġtremble": 10200, "Ġrapidement": 10201, "Ġdownstairs": 10202, "990": 10203, "Ġ24": 10204, "Ġdrank": 10205, "Though": 10206, "Ġcountry": 10207, "agit": 10208, "Johnny": 10209, "Ġwaving": 10210, "Ġfriendly": 10211, "con": 10212, "Fe": 10213, "rius": 10214, "Ġclassique": 10215, "ashington": 10216, "installe": 10217, "Ġmelted": 10218, "hens": 10219, "FFE": 10220, "ĠHol": 10221, "abi": 10222, "ĠVer": 10223, "Ġhunger": 10224, "033": 10225, "1472": 10226, "ĠLeipzig": 10227, "Ġwetness": 10228, "Jimin": 10229, "Ġunlock": 10230, "ifiques": 10231, "oline": 10232, "Ġvolume": 10233, "ĠdÃ©couverte": 10234, "661": 10235, "Ġpunishment": 10236, "Ġriding": 10237, "Ġrevealed": 10238, "Ġblast": 10239, "Ġrevel": 10240, "Ġbloom": 10241, "ĠDomin": 10242, "Ã©tait": 10243, "Ġthreatened": 10244, "Ġtill": 10245, "oured": 10246, "ĠBal": 10247, "rant": 10248, "Ġturb": 10249, "202": 10250, "autor": 10251, "ĠGojo": 10252, "Ġcommercial": 10253, "ĠPorto": 10254, "649": 10255, "EFF": 10256, "Martin": 10257, "Elbe": 10258, "941": 10259, "Ġinvited": 10260, "Ġdiam": 10261, "asco": 10262, "Ġriver": 10263, "ivia": 10264, "Ġcompliment": 10265, "Ġswallowing": 10266, "aj": 10267, "ĠRhÃ©nanie": 10268, "BBF": 10269, "Ġouest": 10270, "ĠBlood": 10271, "mont": 10272, "Ġslap": 10273, "Katan": 10274, "Ġattractive": 10275, "Ġrent": 10276, "Ġlimp": 10277, "ropriate": 10278, "ĠCould": 10279, "Ġshuff": 10280, "Ġattempting": 10281, "Ġsemi": 10282, "Ġ1984": 10283, "227": 10284, "yler": 10285, "Dan": 10286, "ĠAmer": 10287, "169": 10288, "vient": 10289, "ĠBaekhyun": 10290, "Ġswiftly": 10291, "ĠHas": 10292, "ĠTour": 10293, "ĠPo": 10294, "ĠOff": 10295, "Ġgrunts": 10296, "Ġdawn": 10297, "Ġhast": 10298, "Ġpuff": 10299, "ĠDÃ¼sseldorf": 10300, "Ġappar": 10301, "Ġgerman": 10302, "idt": 10303, "ĠLo": 10304, "ĠMikey": 10305, "ĠHun": 10306, "ĠÃ©to": 10307, "Ġinternation": 10308, "Ġsession": 10309, "ĠbÃ©nÃ©": 10310, "Ġsimil": 10311, "Ġcake": 10312, "ĠHave": 10313, "izon": 10314, "avec": 10315, "ruction": 10316, "1363": 10317, "352": 10318, "ĠSoo": 10319, "1050": 10320, "Ġsouver": 10321, "lie": 10322, "Ġinspir": 10323, "Ġtrembled": 10324, "1016": 10325, "797": 10326, "?\",": 10327, "197": 10328, "tr": 10329, "Ġprovin": 10330, "Ġpassionate": 10331, "DFE": 10332, "Xian": 10333, "894": 10334, "359": 10335, "Ġsuivantes": 10336, "topher": 10337, "ĠTechn": 10338, "Ġshudder": 10339, "ĠBur": 10340, "262": 10341, "267": 10342, "ĠTrans": 10343, "Ġecstasy": 10344, "EFC": 10345, "Ġforment": 10346, "1570": 10347, "Ġflight": 10348, "Ġcontrast": 10349, "anye": 10350, "orthy": 10351, "Ġaver": 10352, "ayn": 10353, "Ġaccount": 10354, "Ġcreep": 10355, "887": 10356, "ifully": 10357, "Ġdonn": 10358, "ahn": 10359, "otype": 10360, "Ġboring": 10361, "1392": 10362, "ĠShin": 10363, "However": 10364, "Ġfluttering": 10365, "Ġtrained": 10366, "Ġdiplom": 10367, "Michael": 10368, "Ġ1952": 10369, "Ġmars": 10370, "Ġvice": 10371, "ĠEach": 10372, "ĠpersonnalitÃ©": 10373, "892": 10374, "temps": 10375, "ĠDoyoung": 10376, "Ġkneeling": 10377, "uchÃ©": 10378, "ĠÅ½": 10379, "Ġashamed": 10380, "ĠTal": 10381, "Ġtir": 10382, "Ġdil": 10383, "inette": 10384, "82185": 10385, "232": 10386, "Ġrecent": 10387, "Ġresponds": 10388, "ĠNaruto": 10389, "ĠÃ©cl": 10390, "Ġpip": 10391, "Ġ2017": 10392, "ĠGwen": 10393, "Espagne": 10394, "Ġinvent": 10395, "Ġclosest": 10396, "FBF": 10397, "warts": 10398, "Ġduc": 10399, "Ġhumor": 10400, "iable": 10401, "ĠSÃ¡z": 10402, "Ġrope": 10403, "Ġdrool": 10404, "Ġrelaxing": 10405, "FFC": 10406, "Ġneuf": 10407, "Ġcrawled": 10408, "Ì¥": 10409, "Ġimpression": 10410, "Ġsteal": 10411, "ĠmÃ©dic": 10412, "isons": 10413, "Ġthoroughly": 10414, "Ġideas": 10415, "Ġevidence": 10416, "150679": 10417, "Ġdescend": 10418, "Ġconseil": 10419, "ĠSeverus": 10420, "Ġfancy": 10421, "Ġavail": 10422, "Ġanti": 10423, "1721": 10424, "Ġscul": 10425, "ebourg": 10426, "ĠCody": 10427, "Ġchir": 10428, "Ġexit": 10429, "Ġislamique": 10430, "emond": 10431, "rey": 10432, "Ġacknowled": 10433, "ĠduchÃ©": 10434, "peace": 10435, "168": 10436, "ĠCha": 10437, "usa": 10438, "ĠIV": 10439, "ĠInst": 10440, "ashion": 10441, "Ġshade": 10442, "ailing": 10443, "Ġdiscomfort": 10444, "Ġgrowls": 10445, "Ġmercy": 10446, "Ġdining": 10447, "Ġ2019": 10448, "ĠHopper": 10449, "Ġshown": 10450, "lios": 10451, "Ġswirling": 10452, "Ġdod": 10453, "Ben": 10454, "gau": 10455, "1346": 10456, "914": 10457, "100937": 10458, "Tom": 10459, "233": 10460, "Ġlands": 10461, "Ġweakly": 10462, "Ġdrifted": 10463, "rient": 10464, "ĠWu": 10465, "ribly": 10466, "Ġcomport": 10467, "Ġsobs": 10468, "Ġspotted": 10469, "1644": 10470, "Ġfaut": 10471, "ĠKok": 10472, "erable": 10473, "Ġdeliber": 10474, "hÃ©ros": 10475, "won": 10476, "Ġwaits": 10477, "ĠSomeone": 10478, "Ġanswering": 10479, "560": 10480, "Ġrab": 10481, "anth": 10482, "âĢĻ,": 10483, "Ġstays": 10484, "anim": 10485, "Ġvia": 10486, "agen": 10487, "ancer": 10488, "ĠcÃ´tÃ©s": 10489, "Ġsoldiers": 10490, "Ok": 10491, "Ġbun": 10492, "ĠJoyce": 10493, "osef": 10494, "empereur": 10495, "Ġarts": 10496, "Ġseated": 10497, "Ġrocking": 10498, "710": 10499, "ĠEnd": 10500, "Ġlonely": 10501, "EEE": 10502, "chiev": 10503, "546": 10504, "154": 10505, "Ġcreatures": 10506, "Ġmajeure": 10507, "ĠJer": 10508, "Ġpours": 10509, "Ġhorrif": 10510, "Ġeyelids": 10511, "840": 10512, "Ġlad": 10513, "Ġimpact": 10514, "empor": 10515, "Ġfigures": 10516, "Ġsettles": 10517, "Main": 10518, "~\"": 10519, "ctu": 10520, "Ġsubd": 10521, "ĠKai": 10522, "Ġoffers": 10523, "ĠYeosang": 10524, "964": 10525, "Ġuses": 10526, "Wow": 10527, "Ġtire": 10528, "Ġcott": 10529, "ĠprotÃ©g": 10530, "ctually": 10531, "275": 10532, "EBF": 10533, "FAF": 10534, "Jo": 10535, "ĠpÃªche": 10536, "ĠprÃ©p": 10537, "Ġappears": 10538, "Ġrenonc": 10539, "Ġterms": 10540, "Ġcircumst": 10541, "Ġcaressed": 10542, "Ġportrait": 10543, "ĠZieg": 10544, "Ġpatted": 10545, "ĠpiÃ¨ces": 10546, "ĠAp": 10547, "usk": 10548, "uritÃ©": 10549, "Ġfriction": 10550, "ĠErnst": 10551, "Ġvictoire": 10552, "355": 10553, "Ġseason": 10554, "Ġplateau": 10555, "fle": 10556, "ustral": 10557, "Ġcharacter": 10558, "699": 10559, "know": 10560, "Ġcontroll": 10561, "Ġdevenue": 10562, "992": 10563, "down": 10564, "Ġasse": 10565, "upt": 10566, "illing": 10567, "Ġmicro": 10568, "Ġcalcul": 10569, "ĠCr": 10570, "Ġretrie": 10571, "Ġspecific": 10572, "Ã©nophane": 10573, "ĠSuddenly": 10574, "ĠJos": 10575, "Ġattempts": 10576, "CAE": 10577, "Ġpuzz": 10578, "Ġmasse": 10579, "Ġprostate": 10580, "ĠHouse": 10581, "Ã©taire": 10582, "eyed": 10583, "Yers": 10584, "DFA": 10585, "Ġpest": 10586, "Ġmatching": 10587, "ĠmÃ©decine": 10588, "Ġtraced": 10589, "Ġreligie": 10590, "Äı": 10591, "ĠChristine": 10592, "ĠÅ½Äı": 10593, "ĠSÃ¡zavou": 10594, "ĠÅ½ÄıÃ¡r": 10595, "ĠcomÃ©d": 10596, "Everything": 10597, "Fils": 10598, "Ġhaun": 10599, "164": 10600, "Ġtensed": 10601, "Georg": 10602, "rd": 10603, "Ġhid": 10604, "qi": 10605, "adow": 10606, "Ġchasse": 10607, "Ġfloating": 10608, "Franz": 10609, "Ġvendu": 10610, "Ã©conomie": 10611, "Ġblinking": 10612, "Ġtangled": 10613, "rystal": 10614, "Ġspin": 10615, "Ġdot": 10616, "Ġproceed": 10617, "Ġsymbol": 10618, "Ġchaud": 10619, "1673": 10620, "Ġconfess": 10621, "Ġjumping": 10622, "Äģ": 10623, "Ġinterpr": 10624, "020": 10625, "atory": 10626, "ĠKate": 10627, "Ġstrike": 10628, "Ġgrecque": 10629, "ĠDiluc": 10630, "Ġcrown": 10631, "Ġreflection": 10632, "nord": 10633, "ĠHenri": 10634, "een": 10635, "Adolf": 10636, "ĠLondon": 10637, "aper": 10638, "Ġ1933": 10639, "Ġstrained": 10640, "CEF": 10641, "ĠAv": 10642, "ordin": 10643, "Ġflow": 10644, "CCC": 10645, "aphne": 10646, "ĠSuga": 10647, "Ġcush": 10648, "Ġripp": 10649, "Ġcooking": 10650, "August": 10651, "Ġargument": 10652, "Rud": 10653, "hn": 10654, "Ġbapt": 10655, "ĠXie": 10656, "Ġpockets": 10657, "Ġpossibility": 10658, "Ġrace": 10659, "oie": 10660, "Ġmaritime": 10661, "Ġbiggest": 10662, "Ġankles": 10663, "EAC": 10664, "Ġdomination": 10665, "Ġmischiev": 10666, "740": 10667, "Ġnotion": 10668, "Ġcycle": 10669, "Ġcorridor": 10670, "Ġvoie": 10671, "Ġ1850": 10672, "Ġwinter": 10673, "Ġequally": 10674, "ĠSim": 10675, "ums": 10676, "Ġarse": 10677, "Ġmurder": 10678, "ĠDor": 10679, "Never": 10680, "asses": 10681, "847": 10682, "224": 10683, "644": 10684, "Ġcivil": 10685, "Ġcourant": 10686, "Ġarticle": 10687, "Ġproduits": 10688, "FBD": 10689, "Ġstall": 10690, "Ġtruck": 10691, "ĠtraitÃ©": 10692, "Ġult": 10693, "Jac": 10694, "Ġdun": 10695, "ĠBeing": 10696, "Ġsensations": 10697, "habitants": 10698, "Ġbron": 10699, "ccident": 10700, "Pat": 10701, "ĠderniÃ¨re": 10702, "Ġbackground": 10703, "athy": 10704, "Ġchampion": 10705, "Ġfuckin": 10706, "Ġregular": 10707, "Ã©rable": 10708, "Ġsubm": 10709, "4493": 10710, "EEC": 10711, "ĠOkay": 10712, "ĠVen": 10713, "ani": 10714, "Ġgate": 10715, "Ġundo": 10716, "502": 10717, "Che": 10718, "Ġtilts": 10719, "Ġpolonais": 10720, "354": 10721, "ĠcÃ©r": 10722, "Ġhandful": 10723, "istry": 10724, "664": 10725, "Ã©en": 10726, "771": 10727, "ĠGabriel": 10728, "ĠCle": 10729, "764": 10730, "Ġalongside": 10731, "Ġregister": 10732, "idding": 10733, "ĠFlorence": 10734, "Ġdestroyed": 10735, "Ġpied": 10736, "Ġhurry": 10737, "694": 10738, "Ġcuriously": 10739, "Ġfrowns": 10740, "Off": 10741, "ni": 10742, "vis": 10743, "ĠPrice": 10744, "161": 10745, "ĠLyon": 10746, "uno": 10747, "Ġchildhood": 10748, "inia": 10749, "Ġanc": 10750, "Ġcomplicated": 10751, "Acre": 10752, "inent": 10753, "ÈĽ": 10754, "668": 10755, "269": 10756, "Ġguests": 10757, "uster": 10758, "ĠDres": 10759, "Ġward": 10760, "Ã©op": 10761, "ĠLam": 10762, "Ġwinced": 10763, "ĠAubrey": 10764, "onestly": 10765, "ĠDouglas": 10766, "371": 10767, "Ġmode": 10768, "1356": 10769, "570": 10770, "Ġentreprise": 10771, "aguely": 10772, "ĠpÃ©tro": 10773, "Ġhab": 10774, "761": 10775, "rosion": 10776, "ĠMegumi": 10777, "CO": 10778, "CAA": 10779, "539": 10780, "ĠCons": 10781, "iveness": 10782, "Ġcontinentale": 10783, "EAD": 10784, "ĠOm": 10785, "Ġwarned": 10786, "Ġdemi": 10787, "Despite": 10788, "ĠKur": 10789, "essel": 10790, "Out": 10791, "Ġmainten": 10792, "enth": 10793, "Ġposit": 10794, "aura": 10795, "768": 10796, "Ġinjured": 10797, "Ġtapped": 10798, "Ġbunch": 10799, "Ġfi": 10800, "ĠMat": 10801, "Ġexpert": 10802, "Ġtourisme": 10803, "Ġhaute": 10804, "Ġcreate": 10805, "CDD": 10806, "ĠBrit": 10807, "Ġdoct": 10808, "ĠrÃ©d": 10809, "ĠKazuha": 10810, "Hm": 10811, "oue": 10812, "Ġmaire": 10813, "Ġfrantically": 10814, "Ġ1985": 10815, "Ġworries": 10816, "Ġcontempor": 10817, "351": 10818, "Ġwrink": 10819, "uko": 10820, "Ġjerked": 10821, "Ġdull": 10822, "Ġoccasionally": 10823, "ĠSav": 10824, "601": 10825, "ĠmaÃ®tre": 10826, "Ġapology": 10827, "acement": 10828, "ĠSainte": 10829, "ĠLolita": 10830, "121": 10831, "Otto": 10832, "ĠLombard": 10833, "duard": 10834, "EAB": 10835, "Ã©lect": 10836, "ommÃ©": 10837, "ĠHogwarts": 10838, "uelles": 10839, "Ġchans": 10840, "ĠsupÃ©rieure": 10841, "Ġstudying": 10842, "uy": 10843, "Ġwoods": 10844, "riz": 10845, "ĠGyro": 10846, "EAE": 10847, "Ġferm": 10848, "Ġrig": 10849, "aga": 10850, "Ġpuppy": 10851, "129259": 10852, "rose": 10853, "FAC": 10854, "ĠPrincess": 10855, "AcadÃ©mie": 10856, "ciously": 10857, "127149": 10858, "Ġhem": 10859, "Ġinev": 10860, "ĠRudolf": 10861, "wice": 10862, "icate": 10863, "Ġstif": 10864, "Ġgrunt": 10865, "Ġinevit": 10866, "Without": 10867, "Ġgathering": 10868, "Ġchampionnat": 10869, "ĠEvan": 10870, "Ġmarry": 10871, "Ġnaturel": 10872, "Ġreleasing": 10873, "ĠSou": 10874, "ĠOct": 10875, "078": 10876, "enk": 10877, "ĠHo": 10878, "ĠChrissy": 10879, "Ġaugment": 10880, "Everyone": 10881, "FAB": 10882, "Rom": 10883, "Ġskills": 10884, "Ġartiste": 10885, "CFF": 10886, "Ġmilk": 10887, "Ġtitres": 10888, "ĠSuÃ¨de": 10889, "Ġknelt": 10890, "Dean": 10891, "osc": 10892, "256": 10893, "Ġminim": 10894, "DBE": 10895, "ĠGold": 10896, "Ġlig": 10897, "Ġutil": 10898, "Ġprivacy": 10899, "Ġpumping": 10900, "Ġoil": 10901, "amine": 10902, "Ġfondation": 10903, "1548": 10904, "enu": 10905, "EFE": 10906, "ĠLian": 10907, "Ġpreparing": 10908, "Ġglint": 10909, "Ġsynth": 10910, "ĠDeath": 10911, "ĠCont": 10912, "ĠcrÃ©Ã©e": 10913, "Ġflustered": 10914, "erness": 10915, "CK": 10916, "834": 10917, "Aziraphale": 10918, "FAD": 10919, "Mm": 10920, "icles": 10921, "Ġcentral": 10922, "ĠnuclÃ©": 10923, "EDD": 10924, "Ġos": 10925, "ural": 10926, "Ġwashing": 10927, "Ġcommented": 10928, "993": 10929, "Ġfoss": 10930, "782": 10931, "Ã©rite": 10932, "Ġsurprising": 10933, "Ġsneak": 10934, "ĠSol": 10935, "358": 10936, "Ġunus": 10937, "1420": 10938, "ĠSuk": 10939, "Ġguided": 10940, "Ġfabrication": 10941, "Ġep": 10942, "ĠSnape": 10943, "Ġ(\"\")": 10944, "ĠconnaÃ®t": 10945, "DAC": 10946, "EBC": 10947, "Ġsources": 10948, "Fl": 10949, "Ġdanced": 10950, "Ġtore": 10951, "751": 10952, "ĠdÃ©cision": 10953, "ĠHamilton": 10954, "ĠDresde": 10955, "Ġah": 10956, "Ġfurn": 10957, "Ġink": 10958, "Ġpretending": 10959, "1423": 10960, "613": 10961, "Ġrests": 10962, "Ġclinging": 10963, "lying": 10964, "ĠAmÃ©rique": 10965, "Ġunconscious": 10966, "Bet": 10967, "Ġ1995": 10968, "Both": 10969, "Ġconte": 10970, "Ã¨d": 10971, "Ġstring": 10972, "oko": 10973, "FAE": 10974, "Ġroutine": 10975, "Ġmaladie": 10976, "Ġmomentarily": 10977, "Simon": 10978, "ĠLuffy": 10979, "Ġfocusing": 10980, "Ġrarely": 10981, "ĠKiyoomi": 10982, "Ġbata": 10983, "Ġitems": 10984, "ĠSett": 10985, "Ġspilled": 10986, "Ġissues": 10987, "Ass": 10988, "ugly": 10989, "ĠJuan": 10990, "Ġopinion": 10991, "CEA": 10992, "ĠMass": 10993, "DCE": 10994, "Ġ21": 10995, "Ġrelent": 10996, "Ġseparate": 10997, "ĠLiz": 10998, "oshi": 10999, "mis": 11000, "Ġmanif": 11001, "Ġpeaceful": 11002, "Ġ1947": 11003, "Ġduty": 11004, "var": 11005, "vÃ©g": 11006, "Ġfai": 11007, "Ġpity": 11008, "ĠGil": 11009, "Ġtray": 11010, "Ã©f": 11011, "Ġincident": 11012, "Ġsignal": 11013, "iÃ©tÃ©": 11014, "ĠchaÃ®": 11015, "istrict": 11016, "Ġsen": 11017, "phen": 11018, "ĠKra": 11019, "Ġsweetly": 11020, "Nam": 11021, "utting": 11022, "Ġwheel": 11023, "iÄĩ": 11024, "real": 11025, "538": 11026, "intelligence": 11027, "Ġdang": 11028, "Ġattest": 11029, "Ark": 11030, "Hermann": 11031, "Ġwhom": 11032, "230": 11033, "ĠTexas": 11034, "Ġpleading": 11035, "Ġconfirmed": 11036, "Ġlonging": 11037, "756": 11038, "Ġindex": 11039, "ĠLel": 11040, "osphere": 11041, "ĠJenna": 11042, "Ġnat": 11043, "Ġaccus": 11044, "Ġdriver": 11045, "ĠNorth": 11046, "Ġlieux": 11047, "Ġpanicked": 11048, "Sebastian": 11049, "Ġaddition": 11050, "Ġtossing": 11051, "Ġait": 11052, "ĠsiÃ¨cle": 11053, "ÈĻ": 11054, "asa": 11055, "ban": 11056, "iches": 11057, "agging": 11058, "Ġvest": 11059, "Ã©nine": 11060, "ĠSole": 11061, "ĠCarlos": 11062, "Ġbrave": 11063, "Illinois": 11064, "Ġexplore": 11065, "Ġcolour": 11066, "Ġinvis": 11067, "Ġdiver": 11068, "expression": 11069, "ĠAgain": 11070, "ĠAlexander": 11071, "ĠSasuke": 11072, "ĠJesper": 11073, "ican": 11074, "Ġgermano": 11075, ".,": 11076, "fond": 11077, "Ġendless": 11078, "uous": 11079, "Ġsunlight": 11080, "hir": 11081, "ĠWerner": 11082, "Ġnoble": 11083, "557": 11084, "mind": 11085, "then": 11086, "Ġweather": 11087, "ĠMrs": 11088, "Ġende": 11089, "ĠThese": 11090, "Ġindustriel": 11091, "bow": 11092, "Ġenemy": 11093, "ulated": 11094, "bac": 11095, "Ġexasper": 11096, "blings": 11097, "Ġmanip": 11098, "365": 11099, "crat": 11100, "ĠHere": 11101, "ouses": 11102, "onien": 11103, "Ġaust": 11104, "ĠGavin": 11105, "378": 11106, "ĠsuÃ©dois": 11107, "Ġincluding": 11108, "Ġsubdiv": 11109, "Ġjol": 11110, "Ġconsequ": 11111, "Felix": 11112, "Ġdite": 11113, "Ġnerve": 11114, "DCF": 11115, "Ġpotential": 11116, "illon": 11117, "124490": 11118, "Ġthankful": 11119, "260": 11120, "CBD": 11121, "Ġclicked": 11122, "Ġaccompan": 11123, "Ġlake": 11124, "ichiro": 11125, "ĠUl": 11126, "Ġaroused": 11127, "Ġsortie": 11128, "Ġcollege": 11129, "ĠKirishima": 11130, "ilst": 11131, "ovre": 11132, "ĠDay": 11133, "Ã©rienne": 11134, "Ġleads": 11135, "Ġrip": 11136, "530": 11137, "Ã©tat": 11138, "Ġterritoires": 11139, "Ġplante": 11140, "ĠRiver": 11141, "Ġpersonne": 11142, "ĠTaÃ¯wan": 11143, "imar": 11144, "CFA": 11145, "133600": 11146, "565": 11147, "Ġregardless": 11148, "Ã©rer": 11149, "Ġbothering": 11150, "Ġbehavior": 11151, "Ã©b": 11152, "Ġchain": 11153, "Ġlightning": 11154, "CAD": 11155, "CCD": 11156, "Ġconditions": 11157, "ĠdÃ©roule": 11158, "roid": 11159, "Ġpatience": 11160, "jected": 11161, "Sun": 11162, "EED": 11163, "ĠKevin": 11164, "ĠâĢ": 11165, "1326": 11166, "Ġrealise": 11167, "ĠÃ©vÃªque": 11168, "xyde": 11169, "Ġrude": 11170, "anyeol": 11171, "mond": 11172, "aÃ¯a": 11173, "Ġdiscovered": 11174, "720": 11175, "Ġlux": 11176, "Ġvaguely": 11177, "553": 11178, "Ġfills": 11179, "ĠLor": 11180, "osa": 11181, "odie": 11182, "Ġfarm": 11183, "Ġmild": 11184, "Ġdeviend": 11185, "Ġfavourite": 11186, "Ġreminder": 11187, "Ġdispose": 11188, "Ġarching": 11189, "teurs": 11190, "ansy": 11191, "ĠcomposÃ©e": 11192, "Ġpaw": 11193, "Ġnick": 11194, "elo": 11195, "Ġlaptop": 11196, "228": 11197, "627": 11198, "Ġhumming": 11199, "DAD": 11200, "Ġjoking": 11201, "eku": 11202, "Ġextended": 11203, "ï½": 11204, "Ġcontrib": 11205, "Ġviolent": 11206, "Ġlabor": 11207, "ĠLaw": 11208, "isten": 11209, "Ġletters": 11210, "Ġimportants": 11211, "ĠChat": 11212, "624": 11213, "DEA": 11214, "ĠLombardie": 11215, "1536": 11216, "ĠTrip": 11217, "Ġpupils": 11218, "772": 11219, "ĠLac": 11220, "Ġdum": 11221, "FEB": 11222, "irent": 11223, "Ġfinalement": 11224, "Ġadvice": 11225, "Ġlongueur": 11226, "atched": 11227, "ĠVin": 11228, "Ġmessages": 11229, "ĠWay": 11230, "Ġfever": 11231, "Ġbrand": 11232, "sa": 11233, "Ġtechniques": 11234, "Ġmock": 11235, "Ġflinched": 11236, "Ġmountain": 11237, "Jack": 11238, "Ġscary": 11239, "508": 11240, "397": 11241, "agnes": 11242, "EEA": 11243, "DCD": 11244, "Ì©Ì©": 11245, "fall": 11246, "Ġneut": 11247, "Ġperiod": 11248, "Ġdrawer": 11249, "phelios": 11250, "Ġâ": 11251, "ĠAlice": 11252, "homme": 11253, "ĠLux": 11254, "ĠChaeyoung": 11255, "Ġhovering": 11256, "569": 11257, "357": 11258, "ĠHanovre": 11259, "Ġfortement": 11260, "Ġtugs": 11261, "ĠPÃ©": 11262, "Ã©checs": 11263, "ĠMart": 11264, "ĠSheen": 11265, "box": 11266, "Yoongi": 11267, "Ġ1934": 11268, "Ġdisco": 11269, "Ġserve": 11270, "Ġringing": 11271, "Ġsighing": 11272, "Ã©tude": 11273, "Ġexhaustion": 11274, "Ġtrails": 11275, "Ġswept": 11276, "ĠRei": 11277, "Ġchanteur": 11278, "ĠHann": 11279, "ophone": 11280, "Ġgoddamn": 11281, "Ġdepths": 11282, "zily": 11283, "Ġabsent": 11284, "CAF": 11285, "Ġnib": 11286, "emb": 11287, "ĠrÃ©volution": 11288, "Ghost": 11289, "ĠToo": 11290, "Ġchoos": 11291, "Ġsmirking": 11292, "Ġstuffed": 11293, "131671": 11294, "ĠAiz": 11295, "Ġtracks": 11296, "Ġpositions": 11297, "ĠZiegler": 11298, "Ã©lev": 11299, "raph": 11300, "istent": 11301, "Ġgroaning": 11302, "ĠÃīmilie": 11303, "moon": 11304, "Ġhistoire": 11305, "CEB": 11306, "Anton": 11307, "Cy": 11308, "DBF": 11309, "DED": 11310, "ĠlÃ©gend": 11311, "Ġtravaille": 11312, "ĠLuna": 11313, "hings": 11314, "Ġscrew": 11315, "Ġmedic": 11316, "Ġmentally": 11317, "ischer": 11318, "Ġlighting": 11319, "FFD": 11320, "Ġ1930": 11321, "Ġlingered": 11322, "Izuku": 11323, "Ġtearing": 11324, "ĠconfÃ©rence": 11325, "1543": 11326, "766": 11327, "Chicago": 11328, "uo": 11329, "ĠFrÃ©dÃ©ric": 11330, "Anne": 11331, "oted": 11332, "ĠCamp": 11333, "609": 11334, "Ġfangs": 11335, "Ġflam": 11336, "EEB": 11337, "DCA": 11338, "ĠphÃ©nom": 11339, "Ġpape": 11340, "ĠFrancis": 11341, "Si": 11342, "Ġflowing": 11343, "sl": 11344, "EDA": 11345, "cÃ©e": 11346, "Ġfilthy": 11347, "Ġshell": 11348, "ECF": 11349, "Ġdamned": 11350, "EAF": 11351, "Ġtherm": 11352, "Ġaliment": 11353, "559": 11354, "Ġinterview": 11355, "CBC": 11356, "Ġhar": 11357, "ansk": 11358, "avar": 11359, "DFB": 11360, "ĠMexique": 11361, "Ġcomments": 11362, "Ġbras": 11363, "ÂłÂł": 11364, "Ġserved": 11365, "Ġinstinctively": 11366, "ĠGÃ¶t": 11367, "CBF": 11368, "636": 11369, "Ġremonte": 11370, "ĠJapon": 11371, "338": 11372, "gyu": 11373, "ĠGÃ¶ttingen": 11374, "Ġvain": 11375, "Ġwildly": 11376, "Ġnightmares": 11377, "Certain": 11378, "DAF": 11379, "EFD": 11380, "pro": 11381, "Ġannonce": 11382, "ĠSchm": 11383, "Ġvictim": 11384, "yleth": 11385, "ĠTon": 11386, "agers": 11387, "ĠPan": 11388, "Ġaccue": 11389, "147295": 11390, "Ġsurrend": 11391, "1063": 11392, "Ġpenet": 11393, "tail": 11394, "ĠhÃ©ros": 11395, "Ġstair": 11396, "Ġ1993": 11397, "Ġsoftened": 11398, "astronome": 11399, "Ġconsomm": 11400, "enberg": 11401, "this": 11402, "Ġembrac": 11403, "Ġcupping": 11404, "blioth": 11405, "EBE": 11406, "lish": 11407, "Ġwre": 11408, "cÃ©": 11409, "zes": 11410, "renaline": 11411, "ĠReich": 11412, "Ġsentiment": 11413, "Ġmedical": 11414, "Ġvoc": 11415, "Den": 11416, "759": 11417, "ĠÃ©quip": 11418, "Ġresearch": 11419, "Du": 11420, "ĠPic": 11421, "ĠsupÃ©rieur": 11422, "appy": 11423, "Ġached": 11424, "Ġrejoint": 11425, "Ġdistraction": 11426, "IS": 11427, "kins": 11428, "Ġ1991": 11429, "oyd": 11430, "Ì¶Ì": 11431, "Ġatmosphere": 11432, "ĠWuXian": 11433, "ĠHitler": 11434, "pled": 11435, "ĠJaemin": 11436, "Ġfonctions": 11437, "Ġstraw": 11438, "ĠLore": 11439, "Ġimpressed": 11440, "FCA": 11441, "Ġload": 11442, "Ã©rÃ©s": 11443, "ĠSomme": 11444, "obi": 11445, "239": 11446, "Ġsmells": 11447, "Ì¸Ì": 11448, "Ġtattoo": 11449, "DBB": 11450, "Ġpoissons": 11451, "Damn": 11452, "lace": 11453, "xel": 11454, "Ġfairly": 11455, "pre": 11456, "ĠSpring": 11457, "ppy": 11458, "ĠCid": 11459, "Ġplates": 11460, "Ġscroll": 11461, "746": 11462, "DAB": 11463, "253": 11464, "ĠPrix": 11465, "ĠKu": 11466, "Ġescaping": 11467, "547": 11468, "DAE": 11469, "Ġ1986": 11470, "DEF": 11471, "Ġprincipe": 11472, "ĠnorvÃ©g": 11473, "ĠmÃ©rid": 11474, "ĠdÃ©l": 11475, "Ġjerk": 11476, "Ġinqu": 11477, "236": 11478, "Oran": 11479, "Henry": 11480, "Ġvu": 11481, "Ġbold": 11482, "ÌµÌ": 11483, "297": 11484, "omgyu": 11485, "ĠAemond": 11486, "ĠLooking": 11487, "Ren": 11488, "was": 11489, "Ġtiss": 11490, "cte": 11491, "week": 11492, "Ġslowed": 11493, "Ġsolution": 11494, "Ġyelling": 11495, "Ġhealth": 11496, "wen": 11497, "omed": 11498, "ĠPol": 11499, "amped": 11500, "Ġchaos": 11501, "Ġaccidentally": 11502, "Ġfluttered": 11503, "Ð°": 11504, "ĠAbby": 11505, "Ġslur": 11506, "ĠStra": 11507, "App": 11508, "adriel": 11509, "ĠFestival": 11510, "Ġsujet": 11511, "Ġwiden": 11512, "Ġdivision": 11513, "Ġoptions": 11514, "andra": 11515, "Ġpros": 11516, "Ġfamil": 11517, "ĨÍ": 11518, "inata": 11519, "ĠSanta": 11520, "DCC": 11521, "Ġtighten": 11522, "Ġquestioning": 11523, "Ġbande": 11524, "Ġplane": 11525, "ĠFland": 11526, "Ġmeets": 11527, "FFB": 11528, "they": 11529, "rench": 11530, "wer": 11531, "anor": 11532, "ĠcÅĵur": 11533, "Ġcanal": 11534, "Ġsinging": 11535, "cellent": 11536, "prononcÃ©": 11537, "ĠWeas": 11538, "Ġmixt": 11539, "770": 11540, "ĠSa": 11541, "1076": 11542, "Ġinvestig": 11543, "Ġfourn": 11544, "Ġchick": 11545, "1433": 11546, "Ġprod": 11547, "Ġcer": 11548, "Ġentering": 11549, "Ġswip": 11550, "Ã©mont": 11551, "Ġjumps": 11552, "actions": 11553, "Ġadapt": 11554, "Ġlingu": 11555, "Ġcandid": 11556, "Ġyanked": 11557, "Ġconfront": 11558, "ĠArm": 11559, "Ġwandered": 11560, "ĠDis": 11561, "ĠJeno": 11562, "iture": 11563, "ĠAke": 11564, "Ġauthor": 11565, "astically": 11566, "ieder": 11567, "Ġbeloved": 11568, "270": 11569, "Ġalley": 11570, "Ġjeunesse": 11571, "omy": 11572, "uta": 11573, "209": 11574, "81307": 11575, "ĠSlowly": 11576, "ĠsÃ©curitÃ©": 11577, "1348": 11578, "329": 11579, "Ġteases": 11580, "Ġharshly": 11581, "ĠWylan": 11582, "Ġhopefully": 11583, "Ġgiggling": 11584, "Pierre": 11585, "210": 11586, "Ġtel": 11587, "Ġnos": 11588, "rire": 11589, "ĠGreat": 11590, "Ġhelmet": 11591, "Ġcode": 11592, "Ġpian": 11593, "Ġinvitation": 11594, "Ġpiercing": 11595, "ĠTul": 11596, "Ġcoop": 11597, "053": 11598, "rus": 11599, "Ġeleg": 11600, "apnap": 11601, "abilitÃ©": 11602, "Ġpolite": 11603, "ĠHollande": 11604, "1540": 11605, "Ġ1992": 11606, "ĠWashington": 11607, "Ġ1975": 11608, "Ġsupplies": 11609, "rand": 11610, "atter": 11611, "axy": 11612, "DBD": 11613, "Ġlays": 11614, "Ġrocks": 11615, "293": 11616, "Ġspo": 11617, "ibb": 11618, "cha": 11619, "356": 11620, "ĠKarÃ©nine": 11621, "CAB": 11622, "Ġvaste": 11623, "Ġcocks": 11624, "accord": 11625, "Ġexhaled": 11626, "impse": 11627, "263": 11628, "550": 11629, "Ġclung": 11630, "1035": 11631, "ĠMonday": 11632, "986": 11633, "Ġlic": 11634, "ĠAndre": 11635, "ECD": 11636, "imet": 11637, "ĠBlue": 11638, "quels": 11639, "Ġmascul": 11640, "Ġjapon": 11641, "ĠSteven": 11642, "ðĿĴ": 11643, "ĠGa": 11644, "ĠprÃ©d": 11645, "EBB": 11646, "immer": 11647, "Ġglimpse": 11648, "070": 11649, "CBE": 11650, "ĠSto": 11651, "ĠBul": 11652, "Ġsnapping": 11653, "Ġimportance": 11654, "Ġdiale": 11655, "Ġannounced": 11656, "Ġaccent": 11657, "Ġdouze": 11658, "olly": 11659, "Ġscattered": 11660, "ĠProfessor": 11661, "ĠsÃ©lection": 11662, "tw": 11663, "ĠsantÃ©": 11664, "Ã¢tel": 11665, "empire": 11666, "Ġadvent": 11667, "Ġshuddering": 11668, "ĠJohannes": 11669, "DFD": 11670, "cif": 11671, "mn": 11672, "ministration": 11673, "Ġancient": 11674, "oa": 11675, "Ġenvelop": 11676, "ĠPÃ´": 11677, "ĠNina": 11678, "ĠFer": 11679, "Ġsecondaires": 11680, "Ġtongues": 11681, "oru": 11682, "ĠBella": 11683, "1370": 11684, "Ġfinishing": 11685, "ĠLucien": 11686, "Ġgoddess": 11687, "Ġginger": 11688, "Ġanyways": 11689, "ĠScaramouche": 11690, "Ġrow": 11691, "606": 11692, "Yersinia": 11693, "!!\"": 11694, "Ġpad": 11695, "elier": 11696, "ĠFab": 11697, "ologiste": 11698, "forme": 11699, "Aw": 11700, "CDA": 11701, "abel": 11702, "Ġsecure": 11703, "FCD": 11704, "asmine": 11705, "Ġrapide": 11706, "looking": 11707, "¿Ì": 11708, "Ġsociale": 11709, "Ġsurroundings": 11710, "hom": 11711, "Ì·Ì": 11712, "Since": 11713, "ĠSat": 11714, "iri": 11715, "ĠBÃ¶": 11716, "igi": 11717, "Ġsimult": 11718, "ĠIruka": 11719, "AN": 11720, "Ġress": 11721, "Ġ2018": 11722, "orph": 11723, "738": 11724, "appel": 11725, "Cha": 11726, "anches": 11727, "Ġsoap": 11728, "Jes": 11729, "Ġpages": 11730, "emi": 11731, "oday": 11732, "1718": 11733, "enshi": 11734, "Ġcrashing": 11735, "iterran": 11736, "Ġensure": 11737, "ignement": 11738, "Ġchairs": 11739, "cony": 11740, "Bern": 11741, "ĠInej": 11742, "ĠStar": 11743, "Ji": 11744, "ĤÍ": 11745, "Ġheaving": 11746, "ĠIgn": 11747, "EDB": 11748, "ĠMD": 11749, "Kim": 11750, "Ġsting": 11751, "Ġshove": 11752, "ĠNico": 11753, "geta": 11754, "Ġcapac": 11755, "Ġtapping": 11756, "Ġromancier": 11757, "ĠintÃ©gr": 11758, "ĠCre": 11759, "Ġowner": 11760, "ECA": 11761, "Ġreminds": 11762, "ĠSig": 11763, "ĠJu": 11764, "oded": 11765, "ĠKam": 11766, "Ġswore": 11767, "271": 11768, "ctes": 11769, "Ġechoing": 11770, "ader": 11771, "umn": 11772, "uby": 11773, "Ġbalcony": 11774, "Ġclaimed": 11775, "1545": 11776, "ĠChamp": 11777, "Ġawait": 11778, "Ġthrone": 11779, "Ġdreaming": 11780, "Ġtransl": 11781, "ĠLaure": 11782, "ĠdiplÃ´": 11783, "Ġaspect": 11784, "ĠBonn": 11785, "Ġresc": 11786, "ĠConstant": 11787, "ilm": 11788, "FCF": 11789, "CCB": 11790, "Ġcorrosion": 11791, "Ġexception": 11792, "Ġcreating": 11793, "Ava": 11794, "asmin": 11795, "Arthur": 11796, "Ġexcitedly": 11797, "Ġrarement": 11798, "Christian": 11799, "Ġolympiques": 11800, "CBA": 11801, "activitÃ©": 11802, "Ġ1983": 11803, "536": 11804, "ĠLey": 11805, "ĠAlhaitham": 11806, "Ġhealthy": 11807, "Ġpinched": 11808, "occasion": 11809, "Ëĭ": 11810, "Ġclench": 11811, "Ġgros": 11812, "William": 11813, "ĠAaron": 11814, "ĠcommencÃ©": 11815, "Ġattitude": 11816, "Romagne": 11817, "ĠJamie": 11818, "atinat": 11819, "Ġpoo": 11820, "Ġhaired": 11821, "ĠÃ©diteur": 11822, "outs": 11823, "Ġintently": 11824, "Ġdefeat": 11825, "FCB": 11826, "Ġoccidentale": 11827, "Ġguitar": 11828, "Very": 11829, "Ġpor": 11830, "Ġcontribut": 11831, "Ġinscrit": 11832, "Ġrefus": 11833, "944": 11834, "Ġplanet": 11835, "Which": 11836, "âĢĻ\"": 11837, "Ġbrushes": 11838, "Ġgloves": 11839, "Ġhesitate": 11840, "ĠgÃ©ographique": 11841, "Mexique": 11842, "030": 11843, "ĠJigen": 11844, "ĠJess": 11845, "Ġdramatur": 11846, "itan": 11847, "Ġhanding": 11848, "Ġ2016": 11849, "Ġimportantes": 11850, "Ġdaddy": 11851, "ĠRico": 11852, "Ġchasing": 11853, "Ġseeking": 11854, "DCB": 11855, "248": 11856, "ensen": 11857, "DBC": 11858, "590": 11859, "Ġdared": 11860, "onome": 11861, "avier": 11862, "ĠViv": 11863, "FEC": 11864, "Ġbronze": 11865, "Ġbedside": 11866, "ĠpassÃ©": 11867, "Ġintimid": 11868, "Ġsuppress": 11869, "045": 11870, "aries": 11871, "duchÃ©": 11872, "Ġaggress": 11873, "ĠVers": 11874, "ĠJeux": 11875, "ĠSS": 11876, "Ġavaient": 11877, "Ġjoining": 11878, "Ġdried": 11879, "Ġgoal": 11880, "Ġscratch": 11881, "pse": 11882, "ĠBang": 11883, "Ġalert": 11884, "ĠrÃ©du": 11885, "726": 11886, "Ġcompet": 11887, "ĠChangbin": 11888, "Ġnurse": 11889, "Ã©criv": 11890, "ĭÍ": 11891, "aha": 11892, "DEC": 11893, "OR": 11894, "Ġ2015": 11895, "Ġviolently": 11896, "Ġcherche": 11897, "Ġdizzy": 11898, "FBA": 11899, "Ġanne": 11900, "ifa": 11901, "Those": 11902, "jection": 11903, "ĠSamuel": 11904, "AR": 11905, "Ġnuit": 11906, "Ġcontraire": 11907, "Ġrecherches": 11908, "318": 11909, "Ġoper": 11910, "ĠGro": 11911, "Ġtempor": 11912, "laus": 11913, "087": 11914, "Ġanal": 11915, "Ġpained": 11916, "iaire": 11917, "ĠCou": 11918, "779": 11919, "ĠHubert": 11920, "ÄĽ": 11921, "illian": 11922, "Ġsnar": 11923, "Ġarrang": 11924, "ĠÃ©lectrique": 11925, "080": 11926, "ouvr": 11927, "Ġeaten": 11928, "Ġlogic": 11929, "Ġatteint": 11930, "âĻ¥": 11931, "Ġphysi": 11932, "090": 11933, "EBD": 11934, "Ġspoon": 11935, "Ġragged": 11936, "Ġinterrupt": 11937, "Ġperformance": 11938, "Ġenvoy": 11939, "254": 11940, "Ġseigneur": 11941, "666": 11942, "chal": 11943, "Ġshrie": 11944, "Ġpresque": 11945, "Ludwig": 11946, "Ġpionn": 11947, "Ġseries": 11948, "Ġcircumstances": 11949, "055": 11950, "hest": 11951, "inge": 11952, "urd": 11953, "Ġraven": 11954, "ĠJing": 11955, "Ġscalp": 11956, "EFB": 11957, "emark": 11958, "ĠÐ": 11959, "Ġfashion": 11960, "Ġunknown": 11961, "iev": 11962, "1312": 11963, "onscription": 11964, "Ġstudied": 11965, "Ġassez": 11966, "292": 11967, "rise": 11968, "Ġliste": 11969, "234": 11970, "Ġplanted": 11971, "Con": 11972, "Ġtun": 11973, "Ġcred": 11974, "orne": 11975, "idi": 11976, "ĠMen": 11977, "Ġabrite": 11978, "Avant": 11979, "ĠnÃ©cess": 11980, "Ġfurious": 11981, "Ġconsciousness": 11982, "zon": 11983, "itual": 11984, "ĠMich": 11985, "Ġcivile": 11986, "007": 11987, "370": 11988, "PD": 11989, "Ġbread": 11990, "Ġsynd": 11991, "Ġcolors": 11992, "ĠTabasco": 11993, "Ġshouts": 11994, "Ġessentiellement": 11995, "Ġsheet": 11996, "Ġredhead": 11997, "CDF": 11998, "ĠAG": 11999, "Ġlocking": 12000, "Ġexpensive": 12001, "Ġimagining": 12002, "orat": 12003, "Ġrate": 12004, "Ġwhore": 12005, "Ġroutes": 12006, "DAA": 12007, "Ġmap": 12008, "Ġafford": 12009, "Ã©matite": 12010, "amiliar": 12011, "ıÌ": 12012, "orient": 12013, "ĠTam": 12014, "ĠKen": 12015, "Shut": 12016, "izabeth": 12017, "ĠdÃ©tru": 12018, "ĠSylv": 12019, "Ġarros": 12020, "Ġtroupes": 12021, "Ġjokes": 12022, "ĠLittle": 12023, "ĠThree": 12024, "742": 12025, "Ġain": 12026, "usc": 12027, "Instead": 12028, "arring": 12029, "276": 12030, "Ġdrags": 12031, "Ġbill": 12032, "Ġgay": 12033, "CAC": 12034, "kai": 12035, "cience": 12036, "Ġblades": 12037, "ĠJihl": 12038, "ĠdÃ©signer": 12039, "ĠJihlava": 12040, "507": 12041, "Ġexperiment": 12042, "Ġaudience": 12043, "ĠTol": 12044, "gered": 12045, "Ġadjusted": 12046, "mut": 12047, "Ġ1981": 12048, "acon": 12049, "Ġnotre": 12050, "Ġadrenaline": 12051, "Ã¯v": 12052, "Ġsouff": 12053, "Ġhors": 12054, "Ġrav": 12055, "urem": 12056, "ograp": 12057, "Ġsleeves": 12058, "UN": 12059, "Ġwishing": 12060, "sibly": 12061, "¦Ì": 12062, "ĠthÃ¨se": 12063, "vere": 12064, "agner": 12065, "Ġsiblings": 12066, "Ġprovinces": 12067, "Es": 12068, "ĮÍ": 12069, "ersh": 12070, "AntiquitÃ©": 12071, "Ġbulge": 12072, "Ġ2002": 12073, "Ġsincere": 12074, "216": 12075, "ĠMoon": 12076, "Ġjeux": 12077, "risgau": 12078, "ĠColomb": 12079, "Ġthirty": 12080, "Ġremoving": 12081, "368": 12082, "Ġcasting": 12083, "015": 12084, "Ġeux": 12085, "ĠSimm": 12086, "Ġmassaging": 12087, "Ġpropres": 12088, "arcissa": 12089, "Ġnaturally": 12090, "uremberg": 12091, "Col": 12092, "534": 12093, "ECB": 12094, "raÃ©l": 12095, "333": 12096, "Ġhearts": 12097, "Ġpulsing": 12098, "Ġlashes": 12099, "ĠDaddy": 12100, "DDB": 12101, "Ġgrips": 12102, "histor": 12103, "asser": 12104, "Ġgrandit": 12105, "EAA": 12106, "isan": 12107, "Ġwrote": 12108, "Ġrepeat": 12109, "arded": 12110, "Ġ1920": 12111, "229": 12112, "628": 12113, "FBE": 12114, "famille": 12115, "Ġhey": 12116, "ĠTen": 12117, "ĠCham": 12118, "Ġmotions": 12119, "Ġclutched": 12120, "Ġterrifying": 12121, "wich": 12122, "ĠLeg": 12123, "Ġterrest": 12124, "eon": 12125, "Ġvig": 12126, "Ġinitial": 12127, "CBB": 12128, "Ġunbe": 12129, "Ġshivering": 12130, "Huh": 12131, "ĠWinter": 12132, "ĠKenny": 12133, "Ġcrash": 12134, "Ġmattered": 12135, "ĠPlus": 12136, "Ġ*": 12137, "724": 12138, "Ġswitch": 12139, "oka": 12140, "CFB": 12141, "Ġfrequ": 12142, "Ġaloud": 12143, "741": 12144, "Ã©rind": 12145, "Ġguiding": 12146, "310": 12147, "ĠTrois": 12148, "Beatrice": 12149, "Ġdramaturge": 12150, "ĠChir": 12151, "renched": 12152, "ergie": 12153, "ĠLimbourg": 12154, "Ġtables": 12155, "ĠGary": 12156, "herent": 12157, "CCA": 12158, "Ġfonds": 12159, "Ġshortly": 12160, "Ġpianiste": 12161, "042": 12162, "¢Ì": 12163, "inus": 12164, "ĠWind": 12165, "Ġ1963": 12166, "Ġankle": 12167, "514": 12168, "FBC": 12169, "oms": 12170, "aliste": 12171, "ĠHaute": 12172, "ĳÍ": 12173, "Ġfans": 12174, "688": 12175, "Ġrear": 12176, "iler": 12177, "1547": 12178, "Ġdispos": 12179, "Nord": 12180, "Ġhealed": 12181, "ĠRog": 12182, "auc": 12183, "Ġdevant": 12184, "pour": 12185, "....\"": 12186, "auv": 12187, "631": 12188, "Ġdestination": 12189, "607": 12190, "639": 12191, "ĠShould": 12192, "Ġcert": 12193, "ĠDorian": 12194, "979": 12195, "Ġallemandes": 12196, "621": 12197, "ilet": 12198, "arde": 12199, "684": 12200, "anni": 12201, "uise": 12202, "ĠGaz": 12203, "ĠXÃ©nophane": 12204, "Ġsuspect": 12205, "Ġblew": 12206, "Ġapparent": 12207, "257": 12208, "Should": 12209, "Ġheel": 12210, "arina": 12211, "Ġplants": 12212, "Ġlocation": 12213, "Ġtwin": 12214, "Ġsuffering": 12215, "Ġuniversitaire": 12216, "065": 12217, "ĠJimmy": 12218, "Ġchapelle": 12219, "Ġprofit": 12220, "Ġporn": 12221, "acht": 12222, "Ã©vÃªque": 12223, "rons": 12224, "Ġwhist": 12225, "orde": 12226, "008": 12227, "Ġflame": 12228, "CEC": 12229, "ĠjouÃ©": 12230, "Ġlined": 12231, "Ġshattered": 12232, "Ġfrantic": 12233, "ĠJulius": 12234, "Ġinvisible": 12235, "othy": 12236, "ĠBrandebourg": 12237, "Ġwing": 12238, "uuji": 12239, "Ġdetermination": 12240, "ĠWild": 12241, "iels": 12242, "Histoire": 12243, "main": 12244, "ressing": 12245, "Ġsearched": 12246, "Phil": 12247, "ĠDÃ¶": 12248, "EEF": 12249, "Ġferroviaire": 12250, "ĠHux": 12251, "ĠTaking": 12252, "Ġchase": 12253, "Ġslapping": 12254, "Ġpartners": 12255, "Ġacted": 12256, "Ġtrap": 12257, "ĠÂłĠÂł": 12258, "Ġwhilst": 12259, "ophyse": 12260, "ĠShen": 12261, "Ġwhoever": 12262, "achus": 12263, "264": 12264, "rivÃ©e": 12265, "Ġfulf": 12266, "Ġtraitement": 12267, "642": 12268, "ĠconÃ§": 12269, "Ġplastic": 12270, "intÃ©": 12271, "Ġqueen": 12272, "Ġsorts": 12273, "Ġdessert": 12274, "EDF": 12275, "Ġugly": 12276, "ulate": 12277, "Ġslumped": 12278, "Ġconfond": 12279, "Ġminor": 12280, "Ã¼h": 12281, "ennis": 12282, "Ġresponsib": 12283, "isp": 12284, "Ġrares": 12285, "dda": 12286, "Ġrelativement": 12287, "075": 12288, "Ġhaze": 12289, "Ġsaving": 12290, "Ġtexte": 12291, "Ġimpro": 12292, "ĠClark": 12293, "Ġgesturing": 12294, "ĠproximitÃ©": 12295, "Ġfreedom": 12296, "Ġrocked": 12297, "874": 12298, "Ak": 12299, "Ġcerv": 12300, "cies": 12301, "!?\"": 12302, "Ġdipped": 12303, "Ġfed": 12304, "ĠcoopÃ©ration": 12305, "ĥÍ": 12306, "ĠCant": 12307, "ĠNO": 12308, "Ġdisturb": 12309, "Ġuseful": 12310, "icales": 12311, "quet": 12312, "ĠBonnie": 12313, "ĠDuff": 12314, "Ġloyal": 12315, "arson": 12316, "548": 12317, "Gl": 12318, "Ġcomputer": 12319, "CCE": 12320, "Ernst": 12321, "Ġcabinet": 12322, "CFD": 12323, "FBB": 12324, "ĠSib": 12325, "Ġgritted": 12326, "79876": 12327, "uation": 12328, "ĠOther": 12329, "Ãªts": 12330, "Lance": 12331, "ĽÍ": 12332, "ĠSinn": 12333, "Stede": 12334, "Ã©rÃ©es": 12335, "Ġbrightly": 12336, "Ġblunt": 12337, "Ġsnake": 12338, "Ġbabe": 12339, "Ġcalend": 12340, "Ġ0": 12341, "achel": 12342, "Ġagent": 12343, "69488": 12344, "Ġdemanding": 12345, "ĠMDMA": 12346, "ĦÌ": 12347, "Ġnamed": 12348, "669": 12349, "043": 12350, "CDB": 12351, "bbe": 12352, "ĠBanksy": 12353, "ĠRoman": 12354, "Ġimpressive": 12355, "Ġbust": 12356, "ĠIl": 12357, "Ġlesson": 12358, "ĠsÃ©jour": 12359, "ti": 12360, "Ġbend": 12361, "osph": 12362, "ĠDoctor": 12363, "ĠCent": 12364, "ĠLisa": 12365, "Ġflir": 12366, "Ã©cu": 12367, "ĠAntoine": 12368, "Ġimagination": 12369, "Ġwakes": 12370, "Ġpacked": 12371, "ĠAphelios": 12372, "Ġfridge": 12373, "ĠutilisÃ©s": 12374, "Ġrural": 12375, "FEA": 12376, "ĠchaÃ®ne": 12377, "Ġfears": 12378, "ronique": 12379, "Ġburying": 12380, "Lily": 12381, "Mic": 12382, "Ġgrief": 12383, "Ġrever": 12384, "ĠFall": 12385, "238": 12386, "Ġcalmed": 12387, "Ġtermes": 12388, "ĠSabina": 12389, "219": 12390, "328": 12391, "386": 12392, "226": 12393, "Ġattent": 12394, "ocÃ©an": 12395, "Ġartific": 12396, "Ġfaith": 12397, "iÃ©es": 12398, "ĠKr": 12399, "ources": 12400, "ĠOver": 12401, "ĠimpÃ©ri": 12402, "265": 12403, "nold": 12404, "wyn": 12405, "1265": 12406, "Ġarbres": 12407, "ĠtempÃ©rature": 12408, "ŃÌ": 12409, "678": 12410, "Ġsquare": 12411, "Ì´Ì": 12412, "347": 12413, "Ġtunn": 12414, "Ġneur": 12415, "aug": 12416, "Ġyearn": 12417, "ufus": 12418, "Ġconversations": 12419, "¾Ì": 12420, "useum": 12421, "ĠvoÃ¯v": 12422, "Ġdispar": 12423, "ĠpalÃ©": 12424,
[...]
